<unk>	0
<s>	0
</s>	0
<pad>	0
,	-3.27196
▁de	-3.27817
.	-3.59814
s	-3.89624
'	-3.97809
▁et	-4.08695
▁la	-4.10287
’	-4.11894
▁à	-4.33416
▁le	-4.38077
▁l	-4.41753
▁d	-4.51315
▁les	-4.53212
▁	-4.60816
▁des	-4.63984
▁en	-4.70239
-	-4.94171
▁du	-4.94206
▁un	-4.96354
▁pour	-4.97174
▁que	-5.15903
▁une	-5.21044
▁dans	-5.25259
▁est	-5.29399
▁sur	-5.35088
▁qui	-5.35834
e	-5.45173
▁(	-5.47797
▁a	-5.50427
▁par	-5.50999
▁pas	-5.51348
▁au	-5.54589
▁vous	-5.62394
▁:	-5.65502
▁avec	-5.72525
▁plus	-5.73961
est	-5.77257
▁ce	-5.80379
▁ou	-5.80698
▁ne	-5.9168
)	-5.92034
▁n	-5.97071
▁qu	-5.98061
▁se	-5.9982
▁je	-6.03528
▁il	-6.07205
...	-6.07541
▁Le	-6.11148
▁s	-6.12358
▁sont	-6.12724
a	-6.16256
un	-6.22901
▁-	-6.25274
▁son	-6.2613
▁La	-6.28564
▁c	-6.31119
▁nous	-6.31829
▁«	-6.32191
il	-6.37621
▁aux	-6.40216
▁votre	-6.40382
▁mais	-6.42914
▁L	-6.46343
r	-6.46929
▁Les	-6.47559
▁tout	-6.50139
une	-6.50436
▁Il	-6.5641
ai	-6.56453
▁j	-6.59276
es	-6.59451
▁bien	-6.61256
▁cette	-6.62339
▁!	-6.62979
▁sa	-6.64996
▁comme	-6.67674
▁C	-6.68392
▁fait	-6.69924
▁faire	-6.69973
:	-6.73959
on	-6.79959
▁si	-6.80434
▁"	-6.80831
▁»	-6.81012
▁ses	-6.85248
en	-6.85802
er	-6.86215
▁être	-6.87783
▁très	-6.88676
▁même	-6.89163
▁on	-6.89278
▁leur	-6.8964
▁ont	-6.90307
y	-6.90521
▁A	-6.91811
▁Je	-6.92356
▁En	-6.92967
▁aussi	-6.93068
▁y	-6.93082
▁?	-6.95184
▁peut	-6.95305
▁été	-6.9556
▁me	-6.97384
▁site	-6.99798
nt	-7.00915
▁sans	-7.03098
t	-7.05161
h	-7.05754
/	-7.08518
▁tous	-7.10377
▁2	-7.11457
▁1	-7.11465
▁elle	-7.11585
ment	-7.11615
▁m	-7.12252
▁rencontre	-7.13293
).	-7.14139
▁ces	-7.15949
▁deux	-7.17284
▁Pour	-7.17852
▁lui	-7.17931
ant	-7.18114
▁notre	-7.19551
é	-7.20195
▁J	-7.21984
▁vos	-7.24677
▁ans	-7.29111
z	-7.29969
"	-7.30748
▁entre	-7.30793
▁temps	-7.30945
▁3	-7.3173
▁après	-7.32021
▁mon	-7.34035
▁peu	-7.34309
;	-7.38287
▁Ce	-7.42266
▁Vous	-7.42885
▁Et	-7.43691
▁De	-7.44584
),	-7.45506
▁suis	-7.45861
▁où	-7.46671
▁donc	-7.48376
▁encore	-7.48513
▁tu	-7.48644
▁ça	-7.48936
▁nos	-7.49287
▁vie	-7.50865
▁Un	-7.51697
▁Nous	-7.51979
▁;	-7.52081
▁France	-7.52112
elle	-7.52427
▁fois	-7.52677
!	-7.53631
▁Si	-7.53728
▁sous	-7.54646
▁S	-7.5524
▁...	-7.56483
▁était	-7.5686
▁non	-7.57347
▁D	-7.5771
▁ainsi	-7.58278
▁ma	-7.58337
▁monde	-7.60129
à	-7.60445
▁|	-7.60469
▁depuis	-7.61856
▁dont	-7.62158
▁4	-7.62828
c	-7.64508
▁Mais	-7.64763
▁leurs	-7.65234
▁Une	-7.65563
le	-7.65588
▁avant	-7.66305
▁moins	-7.66853
ait	-7.67119
▁soit	-7.67163
▁car	-7.67174
▁toute	-7.67432
S	-7.68058
▁toujours	-7.68394
être	-7.68746
▁cas	-7.69035
▁autres	-7.69632
o	-7.70601
▁contre	-7.72116
▁avoir	-7.72758
▁quelques	-7.72768
▁toutes	-7.73231
d	-7.73301
▁5	-7.73315
▁également	-7.74482
▁alors	-7.75629
m	-7.76335
▁avait	-7.76477
▁jour	-7.76678
▁–	-7.77917
▁On	-7.78346
▁moi	-7.78909
?	-7.79172
▁Dans	-7.79449
▁sera	-7.79595
▁M	-7.81148
▁cela	-7.81519
▁/	-7.81538
▁bon	-7.8221
ons	-7.83951
▁faut	-7.84203
▁quand	-7.85736
▁va	-7.86194
▁10	-7.88754
▁beaucoup	-7.88872
▁Elle	-7.89197
▁grand	-7.9046
l	-7.90804
ez	-7.91019
▁place	-7.91117
▁chez	-7.91691
ci	-7.91724
in	-7.92379
▁ligne	-7.92788
▁Cette	-7.93177
▁6	-7.93402
et	-7.93494
▁personnes	-7.93755
C	-7.94575
▁voir	-7.94633
▁travail	-7.94958
▁autre	-7.95339
▁ils	-7.95981
▁mois	-7.96216
▁vers	-7.9627
de	-7.96512
▁•	-7.96916
eau	-7.97461
▁petit	-7.97477
i	-7.98888
▁B	-7.98956
▁premier	-7.99551
▁chaque	-7.99771
▁déjà	-7.99778
n	-7.99946
▁pays	-8.00275
A	-8.00283
▁plusieurs	-8.01371
▁T	-8.02007
▁partie	-8.02363
▁dit	-8.02884
ils	-8.02901
ra	-8.0296
▁fin	-8.03032
2	-8.03096
▁mes	-8.0369
▁pouvez	-8.03711
ou	-8.03896
▁compte	-8.04042
▁jours	-8.04548
▁prix	-8.04605
ont	-8.05189
ent	-8.05481
hui	-8.06017
▁18	-8.06108
▁Au	-8.06109
autres	-8.06223
▁jusqu	-8.0643
▁là	-8.06477
▁suite	-8.07592
▁·	-8.07678
▁afin	-8.08158
▁femme	-8.08583
▁trop	-8.08801
▁moment	-8.08961
▁t	-8.09631
▁dire	-8.09856
▁permet	-8.09937
était	-8.10165
▁rien	-8.10701
▁rencontres	-8.10969
vous	-8.11128
▁doit	-8.11224
p	-8.11712
an	-8.12039
▁cet	-8.12166
au	-8.12192
▁première	-8.12465
▁peuvent	-8.12666
▁ville	-8.12973
▁avons	-8.13245
▁Paris	-8.1338
▁données	-8.13537
­	-8.13541
▁R	-8.13724
▁puis	-8.14386
▁N	-8.14679
▁maison	-8.15275
com	-8.15298
L	-8.15406
▁8	-8.17147
ur	-8.17183
▁personne	-8.1746
re	-8.17752
▁part	-8.18255
▁jamais	-8.18296
▁nouvelle	-8.18342
ce	-8.18464
▁grande	-8.18633
▁point	-8.19023
▁nouveau	-8.19368
▁enfants	-8.19486
▁recherche	-8.19664
▁savoir	-8.2013
▁cours	-8.202
▁service	-8.20206
▁lors	-8.20543
▁E	-8.20953
D	-8.21142
x	-8.21285
ne	-8.2131
▁ici	-8.2132
▁7	-8.21475
]	-8.21644
▁20	-8.21852
▁gratuit	-8.22117
▁P	-8.22184
▁produits	-8.22555
▁lieu	-8.23385
▁[	-8.23501
al	-8.23931
▁avez	-8.24046
▁droit	-8.24743
▁15	-8.24943
la	-8.24947
▁ceux	-8.25068
▁prendre	-8.25219
▁mal	-8.25691
▁projet	-8.26134
▁bonne	-8.2643
▁années	-8.2648
▁»,	-8.26719
▁trois	-8.28135
▁te	-8.28401
E	-8.28636
▁qualité	-8.2972
▁mieux	-8.29995
▁mettre	-8.30389
▁2018	-8.30469
▁Saint	-8.30632
▁dernier	-8.30643
▁eu	-8.30661
▁pendant	-8.30825
P	-8.31753
ée	-8.32809
fr	-8.33885
▁trouver	-8.33895
▁celui	-8.34146
▁re	-8.34289
▁niveau	-8.34335
g	-8.34448
▁p	-8.35011
it	-8.35129
▁vraiment	-8.3523
▁pouvoir	-8.35538
▁partir	-8.35961
▁groupe	-8.36036
▁Des	-8.36228
▁mise	-8.36515
▁mariage	-8.36525
▁F	-8.36626
▁chose	-8.37082
▁souvent	-8.37158
▁reste	-8.37301
▁nombre	-8.37407
▁Jean	-8.37631
(	-8.38261
▁services	-8.38551
▁petite	-8.38905
f	-8.39048
▁possible	-8.40138
▁demande	-8.40257
▁effet	-8.40416
▁17	-8.41036
les	-8.41407
▁nom	-8.41442
1	-8.41599
▁12	-8.41683
▁propose	-8.42088
M	-8.42255
▁Par	-8.42838
▁selon	-8.43207
F	-8.43244
▁femmes	-8.43252
▁décès	-8.44087
T	-8.44097
▁Avec	-8.44186
▁30	-8.44278
B	-8.44317
▁“	-8.44539
▁question	-8.45001
▁ni	-8.45506
autre	-8.45677
▁exemple	-8.45814
▁comment	-8.45896
▁».	-8.4599
▁informations	-8.4689
&	-8.47061
ais	-8.47096
▁celle	-8.4729
▁juin	-8.4745
▁surtout	-8.47713
▁16	-8.47749
age	-8.47862
▁ton	-8.47867
▁base	-8.47876
▁français	-8.47894
▁besoin	-8.48192
▁tant	-8.48454
▁certains	-8.48728
▁9	-8.48877
aient	-8.49028
▁société	-8.49064
▁2017	-8.49129
▁jeu	-8.49214
V	-8.49238
▁aujourd	-8.49487
ing	-8.4977
b	-8.4982
▁famille	-8.50518
▁forme	-8.50714
▁|--	-8.50824
▁in	-8.5084
▁année	-8.51081
▁I	-8.51793
▁septembre	-8.51833
▁parce	-8.5184
▁film	-8.51941
▁coup	-8.52033
▁façon	-8.52299
▁vu	-8.52803
▁choix	-8.52811
▁Après	-8.52956
▁système	-8.52984
H	-8.53174
article	-8.53278
▁cadre	-8.54443
00	-8.54485
▁trouve	-8.54714
aux	-8.54731
▁juste	-8.54864
▁14	-8.54931
▁notamment	-8.55112
▁G	-8.5513
▁simple	-8.55332
u	-8.55399
▁V	-8.55684
▁rapport	-8.55967
▁plan	-8.56275
▁grâce	-8.5636
G	-8.56489
▁produit	-8.56851
▁homme	-8.57066
▁politique	-8.57967
ation	-8.57998
▁etc	-8.58319
▁sécurité	-8.58505
▁À	-8.58518
▁sens	-8.58566
▁êtes	-8.58751
te	-8.58845
▁seul	-8.59224
art	-8.59642
ème	-8.59731
▁passer	-8.59787
3	-8.59824
▁jeune	-8.59835
▁développement	-8.60293
▁côté	-8.60305
▁sommes	-8.60512
or	-8.60678
▁mis	-8.61531
R	-8.61541
▁2015	-8.61597
▁membres	-8.61613
▁devant	-8.61976
▁manière	-8.62
▁seulement	-8.62155
|	-8.62179
▁porte	-8.62272
is	-8.62296
▁&	-8.62471
▁face	-8.62503
▁Ils	-8.62547
▁sites	-8.6259
▁assez	-8.62678
▁novembre	-8.62728
▁heures	-8.62995
▁belle	-8.63128
v	-8.63224
▁nombreux	-8.63324
▁2016	-8.63376
▁font	-8.64077
▁près	-8.64418
▁H	-8.64421
▁tête	-8.64546
▁gens	-8.64573
▁hommes	-8.64637
▁type	-8.65033
▁photos	-8.65204
numérisation	-8.65655
avoir	-8.65968
▁vue	-8.65991
▁salle	-8.66213
k	-8.66464
▁début	-8.66752
és	-8.66815
▁formation	-8.66818
▁mars	-8.6682
▁quelque	-8.66887
▁santé	-8.67045
▁livre	-8.67235
ie	-8.67707
▁haut	-8.67861
▁pu	-8.67923
▁11	-8.67991
▁titre	-8.68048
▁dé	-8.6813
▁13	-8.68423
▁mai	-8.68639
▁public	-8.69218
▁Ces	-8.69863
▁meilleur	-8.69914
▁seront	-8.69941
▁tour	-8.70387
▁passe	-8.705
▁forum	-8.70539
°	-8.70571
histoire	-8.70815
▁serait	-8.70823
▁ta	-8.70877
▁eux	-8.71657
▁Re	-8.71739
▁page	-8.71806
▁long	-8.72269
O	-8.72348
▁quoi	-8.72424
▁ré	-8.72515
même	-8.72782
▁janvier	-8.72972
▁centre	-8.7298
▁corps	-8.73065
▁région	-8.73589
▁octobre	-8.73827
▁pense	-8.73918
▁maintenant	-8.74049
▁Sur	-8.74289
▁2014	-8.74795
▁loi	-8.74795
▁conditions	-8.74898
▁raison	-8.75089
▁donner	-8.75195
▁marque	-8.7527
année	-8.75425
▁Inventaires	-8.75606
▁e	-8.75707
▁Du	-8.7571
▁semaine	-8.75743
▁K	-8.75773
apos	-8.76054
▁main	-8.76207
▁Sa	-8.7624
utilisation	-8.76294
▁autour	-8.76338
▁présent	-8.76509
▁contrats	-8.76535
▁jeunes	-8.76547
▁sujet	-8.76695
avais	-8.76934
▁pris	-8.76955
▁différents	-8.77025
▁découvrir	-8.77106
▁décembre	-8.77412
4	-8.7757
▁bois	-8.77592
j	-8.77822
▁%	-8.77944
us	-8.7806
▁+	-8.78376
▁fonction	-8.7853
eur	-8.78888
▁Tout	-8.7898
▁présente	-8.79575
▁dès	-8.80219
▁étaient	-8.80236
▁marché	-8.80492
▁nouvelles	-8.80631
▁passé	-8.80733
▁journée	-8.81341
▁mesure	-8.8147
▁problème	-8.81607
▁carte	-8.81704
▁25	-8.81848
▁plaisir	-8.82078
",	-8.82188
▁#	-8.82333
▁photo	-8.82505
▁indexation	-8.82547
as	-8.8264
▁plutôt	-8.82927
▁Alors	-8.82944
▁juillet	-8.83078
▁choses	-8.83085
▁19	-8.83157
I	-8.83349
co	-8.83383
://	-8.83655
▁entreprises	-8.83869
able	-8.84139
▁lorsque	-8.8425
▁situation	-8.84378
▁Comme	-8.84442
▁travers	-8.84708
▁[...]	-8.84754
▁sais	-8.84888
▁elles	-8.84936
▁2012	-8.85006
at	-8.85792
▁donne	-8.85979
▁travaux	-8.86051
▁loin	-8.86212
▁mots	-8.86317
▁offre	-8.86355
▁2013	-8.86447
▁pratique	-8.86622
»	-8.86654
▁avril	-8.87018
▁cause	-8.87062
▁création	-8.87768
▁ci	-8.88233
agit	-8.88326
▁aucun	-8.88669
je	-8.88888
▁vidéo	-8.8895
▁ayant	-8.89004
▁vrai	-8.89085
▁dernière	-8.8933
▁DE	-8.89589
▁000	-8.89923
▁petits	-8.90182
▁Site	-8.90215
▁article	-8.90267
▁24	-8.90552
▁charge	-8.90714
▁soir	-8.90785
▁€	-8.90788
▁siècle	-8.90931
▁vient	-8.91372
▁pourrait	-8.91439
ensemble	-8.91564
▁nature	-8.91676
▁général	-8.91719
▁gestion	-8.9189
▁minutes	-8.91949
▁fille	-8.91966
▁Notre	-8.92018
▁veut	-8.92045
30	-8.92067
5	-8.92373
▁fut	-8.92476
▁plein	-8.92587
▁traitement	-8.92752
▁saison	-8.92837
▁but	-8.92848
▁parfois	-8.93162
▁sexe	-8.93166
▁retour	-8.93406
▁pourquoi	-8.93653
entreprise	-8.93683
▁seule	-8.93735
▁mort	-8.93929
▁propre	-8.93992
W	-8.94191
▁programme	-8.94346
▁>	-8.94392
▁points	-8.94413
que	-8.94685
▁peux	-8.94689
▁différentes	-8.94941
▁créer	-8.94959
el	-8.95304
▁h	-8.95337
6	-8.95398
▁Tu	-8.95412
▁mode	-8.95439
▁avis	-8.95467
▁jeux	-8.95748
▁nouveaux	-8.95772
▁parler	-8.9582
elles	-8.95939
N	-8.96184
▁100	-8.96212
▁toi	-8.96347
occasion	-8.96693
".	-8.96927
▁x	-8.97102
▁aller	-8.97543
▁activités	-8.97637
▁musique	-8.97814
me	-8.98047
▁série	-8.98161
▁vente	-8.98276
▁semble	-8.98313
▁française	-8.98471
▁matière	-8.98598
▁Ma	-8.98602
▁février	-8.98623
ine	-8.9866
▁gros	-8.98717
▁21	-8.988
▁lien	-8.98947
▁bas	-8.99082
▁an	-8.99622
▁50	-8.99657
ta	-8.99699
air	-8.99788
▁clients	-8.99916
li	-9.00007
▁prise	-9.00552
aide	-9.00749
▁questions	-9.00797
▁risque	-9.008
▁fort	-9.00852
▁vais	-9.00868
▁quatre	-9.00926
▁yeux	-9.00966
▁auprès	-9.01091
▁frais	-9.01275
▁couleur	-9.01376
ch	-9.01445
▁grands	-9.01486
▁version	-9.0177
▁taille	-9.01924
▁blog	-9.0214
information	-9.02158
▁autant	-9.02195
um	-9.02351
▁O	-9.02484
ailleurs	-9.02559
▁nombreuses	-9.0265
▁Dieu	-9.02731
▁entreprise	-9.02771
▁cuisine	-9.02919
▁doivent	-9.02972
▁ensuite	-9.02977
U	-9.0305
▁Car	-9.03142
ard	-9.03237
▁date	-9.03441
▁période	-9.03506
▁ensemble	-9.04217
▁protection	-9.04218
ées	-9.04231
▁étant	-9.04304
▁Merci	-9.04322
▁réseau	-9.04617
▁code	-9.04676
ter	-9.04812
▁utiliser	-9.04951
▁internet	-9.04958
▁droits	-9.0503
▁laquelle	-9.05038
▁mot	-9.05109
▁important	-9.05809
w	-9.0591
▁dis	-9.0591
▁f	-9.06022
▁projets	-9.06345
▁liste	-9.06366
▁cher	-9.06395
ma	-9.06418
▁août	-9.06509
▁aura	-9.06544
▁histoire	-9.06549
▁vivre	-9.06568
▁cœur	-9.06647
▁Mon	-9.06708
▁aucune	-9.06745
▁rendre	-9.06793
”	-9.07048
▁beau	-9.07156
▁Son	-9.07484
▁g	-9.07521
▁simplement	-9.07542
▁nuit	-9.07623
▁genre	-9.07828
▁concernant	-9.07834
aime	-9.07889
K	-9.08077
ier	-9.08184
▁voiture	-9.08321
J	-9.08483
▁vite	-9.08499
▁président	-9.08519
▁modèle	-9.08538
▁amis	-9.08704
▁Cela	-9.08896
▁W	-9.0905
▁domaine	-9.09142
▁fond	-9.09152
▁voyage	-9.09182
ri	-9.0942
origine	-9.09454
▁rapidement	-9.095
▁particulier	-9.09628
▁terme	-9.09697
▁Pas	-9.09775
▁taux	-9.09906
▁millions	-9.10044
du	-9.10121
rie	-9.10125
▁Depuis	-9.10145
▁r	-9.10151
ré	-9.10216
▁doute	-9.10248
▁aurait	-9.10323
▁Rencontre	-9.10405
ar	-9.10415
té	-9.10466
▁commande	-9.10668
▁facile	-9.10904
ex	-9.10909
▁compris	-9.10953
▁texte	-9.10961
▁terre	-9.11074
▁sûr	-9.11245
▁moyen	-9.11252
to	-9.11402
▁tel	-9.1157
▁chambre	-9.1173
▁web	-9.12135
▁certaines	-9.12209
ro	-9.12298
▁valeur	-9.12837
Le	-9.129
▁enfin	-9.12945
▁lire	-9.12997
▁vont	-9.12997
▁Internet	-9.13152
▁Tous	-9.13357
▁chacun	-9.13415
▁gouvernement	-9.13479
▁vacances	-9.13506
▁Comment	-9.13506
▁quel	-9.13662
▁Conseil	-9.13829
▁tard	-9.13887
▁table	-9.13908
man	-9.141
▁cm	-9.14203
▁noir	-9.14267
tu	-9.143
▁professionnels	-9.14329
▁pré	-9.14461
▁force	-9.14492
▁2011	-9.14625
▁directement	-9.14688
ir	-9.14707
▁expérience	-9.148
▁Michel	-9.14826
▁contenu	-9.14839
na	-9.1487
urs	-9.14987
▁40	-9.1499
▁met	-9.1511
▁prend	-9.15181
▁ai	-9.15621
▁production	-9.15881
▁Que	-9.15954
▁rôle	-9.16056
▁rue	-9.16159
▁jardin	-9.16162
▁b	-9.16505
▁22	-9.1652
amour	-9.16628
▁nécessaire	-9.16678
▁articles	-9.16712
▁permis	-9.16724
▁départ	-9.17012
▁Plus	-9.17189
end	-9.17344
▁the	-9.17348
isme	-9.17699
8	-9.17858
ux	-9.17873
ère	-9.18017
▁deuxième	-9.18109
▁)	-9.18146
▁ca	-9.1817
▁mer	-9.18311
▁notoriétés	-9.18488
▁sein	-9.18548
homme	-9.18624
▁écrit	-9.18724
▁résultats	-9.18773
par	-9.18829
ge	-9.18919
▁technique	-9.19081
▁donné	-9.19101
Y	-9.19348
▁jouer	-9.19616
▁rapide	-9.19819
▁équipe	-9.19952
▁matin	-9.20332
tte	-9.2036
▁2010	-9.20395
▁enfant	-9.20536
▁Ne	-9.2059
▁contrôle	-9.20817
▁fais	-9.20883
ed	-9.20934
équipe	-9.21024
avait	-9.21038
après	-9.21049
use	-9.2117
▁venir	-9.215
▁pièces	-9.21592
▁communication	-9.21804
▁économique	-9.21841
▁relation	-9.21966
ic	-9.22019
▁état	-9.22047
▁In	-9.22182
▁guerre	-9.2221
▁23	-9.22278
▁parle	-9.22416
▁présence	-9.22417
▁km	-9.22507
▁super	-9.22588
▁comprendre	-9.2259
La	-9.22598
▁milieu	-9.22622
▁sortie	-9.2279
▁oui	-9.22794
▁*	-9.22865
▁difficile	-9.23006
▁unique	-9.23124
abord	-9.23266
▁choisir	-9.23359
▁bout	-9.23546
▁numéro	-9.2365
▁disponible	-9.23669
▁St	-9.2372
eux	-9.23856
7	-9.23888
▁co	-9.23995
di	-9.24084
▁of	-9.24102
ca	-9.24165
▁ministre	-9.24246
▁parents	-9.24374
▁contact	-9.24486
▁techniques	-9.24569
▁cherche	-9.24831
tre	-9.24873
école	-9.24942
▁solution	-9.24961
▁calme	-9.24978
▁conseil	-9.2505
▁réaliser	-9.2523
▁envie	-9.25334
▁Pierre	-9.2536
▁pied	-9.255
▁message	-9.25505
▁annonce	-9.25711
os	-9.25734
▁rencontrer	-9.25788
auteur	-9.25795
▁chat	-9.25873
▁longtemps	-9.25889
▁laisser	-9.25891
iste	-9.25899
▁Quand	-9.2595
▁trouvé	-9.26069
▁besoins	-9.26157
▁culture	-9.26227
▁père	-9.26265
▁aider	-9.2633
▁grandes	-9.26781
▁direction	-9.26809
▁secteur	-9.26942
▁téléphone	-9.27085
▁ex	-9.27171
▁professionnelle	-9.27215
▁nationale	-9.273
▁client	-9.27505
▁meilleure	-9.27558
▁route	-9.27615
▁visite	-9.2762
▁parmi	-9.27625
▁style	-9.27716
▁coeur	-9.27849
ner	-9.27918
▁terrain	-9.27936
▁Se	-9.27958
▁presque	-9.27966
▁Z	-9.2811
▁sociale	-9.28143
▁dimanche	-9.28157
▁personnel	-9.28238
ol	-9.28276
▁Votre	-9.28595
▁membre	-9.28682
Unis	-9.28757
▁Bien	-9.28806
▁samedi	-9.28816
ement	-9.29018
▁X	-9.29486
▁sait	-9.29789
▁fil	-9.2988
ia	-9.29924
▁sol	-9.2993
qui	-9.30119
énergie	-9.30158
▁existe	-9.30215
▁É	-9.30225
id	-9.3026
▁Ca	-9.30368
▁gamme	-9.30398
▁celles	-9.30405
▁répondre	-9.30505
▁petites	-9.30568
▁lequel	-9.30686
ac	-9.30748
▁merci	-9.30838
▁The	-9.30841
▁voix	-9.30848
▁commune	-9.30939
▁cul	-9.30954
▁durant	-9.31119
▁blanc	-9.31182
▁couleurs	-9.31211
▁Bon	-9.31237
accès	-9.31266
▁réponse	-9.31307
▁droite	-9.31529
▁mère	-9.31749
particulièrement	-9.31784
▁scène	-9.31827
▁pro	-9.31841
ique	-9.31851
▁chef	-9.31944
ad	-9.31966
▁professionnel	-9.32058
_	-9.32298
▁problèmes	-9.32305
X	-9.32307
eurs	-9.32312
go	-9.32375
▁cookies	-9.32408
▁soient	-9.32478
▁éléments	-9.32762
▁suivi	-9.33
ton	-9.33111
▁Voici	-9.33145
▁permettre	-9.33154
▁via	-9.33252
▁États	-9.33404
pe	-9.33405
▁fils	-9.33739
▁social	-9.33746
▁26	-9.33806
▁bord	-9.33971
▁lorsqu	-9.34285
▁peur	-9.34309
▁libre	-9.34532
▁retrouver	-9.34756
association	-9.34833
©	-9.351
lé	-9.35184
ler	-9.35246
▁demander	-9.35306
▁Ainsi	-9.35388
0	-9.35413
lo	-9.35486
▁réalité	-9.35597
▁veux	-9.3599
intérieur	-9.35993
▁regard	-9.36099
▁Qu	-9.36141
▁manque	-9.36186
▁meilleurs	-9.36385
▁Gaillandre	-9.36452
▁belles	-9.36509
▁permettant	-9.36561
▁tes	-9.3661
▁disposition	-9.36706
▁27	-9.36964
▁club	-9.37351
Les	-9.37357
▁contraire	-9.37365
ion	-9.37398
ante	-9.37434
▁responsable	-9.37572
▁durée	-9.37601
▁village	-9.37665
▁source	-9.37723
▁28	-9.37823
▁aide	-9.3786
ve	-9.37959
▁bureau	-9.38013
▁Maison	-9.38055
action	-9.38181
▁certain	-9.38238
▁Bonjour	-9.38367
▁séjour	-9.3845
be	-9.38479
▁suivre	-9.38526
ité	-9.38641
▁changer	-9.38653
▁catégorie	-9.38681
▁devrait	-9.38717
argent	-9.38819
▁propos	-9.38819
▁classe	-9.3922
▁conseils	-9.39345
▁pourtant	-9.39428
▁rouge	-9.39596
▁département	-9.39613
étais	-9.39651
▁U	-9.3969
▁Non	-9.39834
▁train	-9.39919
▁idées	-9.40014
▁é	-9.40104
▁http	-9.40115
▁large	-9.40155
▁devenir	-9.4018
▁double	-9.40298
▁images	-9.40349
▁hors	-9.40431
▁territoire	-9.40518
▁lieux	-9.4052
▁désormais	-9.4092
▁sociaux	-9.40921
▁pièce	-9.40941
▁semaines	-9.4109
▁Annie	-9.41109
▁faites	-9.41119
▁facilement	-9.41122
▁proche	-9.41188
▁situé	-9.41218
ure	-9.41251
▁lecture	-9.41316
▁rendez	-9.41514
▁lumière	-9.41678
ry	-9.41779
▁mission	-9.4178
▁environ	-9.41833
dé	-9.41985
▁plupart	-9.4214
▁design	-9.42204
▁uniquement	-9.42238
th	-9.42266
ul	-9.42266
▁souhaitez	-9.42304
▁construction	-9.42322
▁gauche	-9.42449
da	-9.42624
▁ailleurs	-9.42671
www	-9.43096
▁disponibles	-9.43214
▁partager	-9.43244
▁décision	-9.43303
heure	-9.43349
▁presse	-9.43359
▁population	-9.43499
▁contacter	-9.43518
▁national	-9.43569
▁Y	-9.43733
▁montre	-9.43855
▁Grand	-9.43887
▁anti	-9.43955
▁soleil	-9.43983
▁Pro	-9.44218
▁sorte	-9.44299
▁peau	-9.44326
ville	-9.44366
▁salon	-9.44387
am	-9.44487
if	-9.4451
entre	-9.4486
▁célibataires	-9.44864
▁peine	-9.44896
▁zone	-9.44936
▁60	-9.45001
▁confiance	-9.45113
▁euros	-9.45226
▁élèves	-9.45267
▁Lire	-9.45282
ront	-9.45295
▁langue	-9.45301
▁permettent	-9.45414
▁connaissance	-9.45566
▁crois	-9.4558
▁proximité	-9.45596
▁pourrez	-9.45708
▁avaient	-9.4587
État	-9.45877
▁changement	-9.4612
▁chance	-9.46365
▁premiers	-9.46378
ut	-9.46467
▁devient	-9.46601
▁possibilité	-9.47098
▁2009	-9.47119
▁quotidien	-9.47135
▁utilisé	-9.47156
▁pourra	-9.47387
si	-9.47444
▁succès	-9.4747
▁idée	-9.47533
né	-9.4754
▁sortir	-9.4758
état	-9.47611
▁dernières	-9.47734
▁Français	-9.47778
▁Co	-9.47892
espace	-9.47932
▁Dé	-9.47981
▁mesures	-9.48037
adresse	-9.48218
▁vol	-9.48244
ot	-9.48323
Etat	-9.48491
▁publique	-9.48654
▁marche	-9.48708
été	-9.48726
▁pages	-9.48735
▁Or	-9.48745
9	-9.48807
▁contrat	-9.48926
ateur	-9.48976
▁quelqu	-9.49033
▁véritable	-9.49045
▁lit	-9.49104
▁Plan	-9.4916
▁espace	-9.49193
emploi	-9.49287
▁Nord	-9.49389
▁politiques	-9.49454
▁profiter	-9.49514
▁0	-9.49619
▁mouvement	-9.49737
▁œuvre	-9.49881
▁Nos	-9.49895
▁François	-9.49898
▁appel	-9.49925
▁garde	-9.4995
▁29	-9.49958
▁soirée	-9.49998
▁suivant	-9.50212
▁autorités	-9.50234
▁proposer	-9.50309
▁vendredi	-9.50408
▁obtenir	-9.50502
▁mains	-9.50543
▁activité	-9.50608
▁soutien	-9.5062
▁moyens	-9.50774
▁solutions	-9.50809
▁prêt	-9.50815
▁générale	-9.50831
▁connu	-9.50854
idée	-9.50854
▁électrique	-9.5093
▁voit	-9.5118
▁haute	-9.51207
▁quartier	-9.51239
▁collection	-9.51301
ici	-9.51358
▁puisque	-9.51405
aire	-9.51415
ly	-9.51447
▁travailler	-9.51479
▁bande	-9.51495
activité	-9.51576
▁match	-9.51616
▁vis	-9.51625
▁longue	-9.51713
▁cinq	-9.51743
▁créé	-9.51751
▁connaître	-9.52211
▁Centre	-9.52394
▁souhaite	-9.52455
▁campagne	-9.52484
esprit	-9.52631
%	-9.52713
▁LA	-9.52728
▁soi	-9.52808
▁référence	-9.53072
▁laisse	-9.53082
po	-9.53151
▁chambres	-9.53262
▁actions	-9.53289
▁ouvert	-9.53299
▁(1)	-9.53424
▁course	-9.53459
▁parcours	-9.53473
É	-9.53518
[	-9.53562
▁passage	-9.53632
▁II	-9.53835
▁Aujourd	-9.53869
▁malgré	-9.53952
▁31	-9.53958
Ã	-9.54024
ins	-9.54034
▁chemin	-9.54087
▁communauté	-9.54094
▁!!!	-9.54161
▁filles	-9.54166
▁physique	-9.54281
ni	-9.54402
objet	-9.54416
▁papier	-9.54426
▁rend	-9.54445
▁gratuite	-9.54606
▁couple	-9.54649
▁derniers	-9.54687
nous	-9.54822
▁règles	-9.54858
▁moteur	-9.54872
▁Sud	-9.54942
ance	-9.54955
▁thème	-9.54972
▁Web	-9.55119
▁Cet	-9.55178
qu	-9.5522
...)	-9.55286
application	-9.55316
mm	-9.55537
▁Enfin	-9.5561
▁heure	-9.55709
▁quelle	-9.55775
image	-9.55812
▁totalement	-9.55821
▁st	-9.55995
▁République	-9.56025
▁domicile	-9.56203
▁complet	-9.56325
▁pratiques	-9.56384
▁Europe	-9.56538
▁décidé	-9.56565
▁poste	-9.56621
▁lundi	-9.56643
no	-9.56668
▁déc	-9.56728
▁dos	-9.56733
▁propres	-9.5686
▁!!	-9.56938
▁derrière	-9.56967
▁Toutes	-9.56969
▁liberté	-9.57071
▁respect	-9.57106
▁divers	-9.57113
▁résultat	-9.57173
con	-9.57173
▁sport	-9.57177
▁Ré	-9.57332
▁commence	-9.57345
€	-9.57354
▁Est	-9.57374
▁accès	-9.57593
▁matériel	-9.57609
▁position	-9.57892
▁Oui	-9.57943
▁Ou	-9.58076
▁and	-9.58122
▁actuellement	-9.5814
▁Lorsque	-9.58274
▁parti	-9.58291
▁reçu	-9.58334
▁con	-9.58356
10	-9.58408
▁no	-9.58544
▁réalisé	-9.58589
ale	-9.5861
▁rester	-9.58617
▁prochain	-9.58639
▁compagnie	-9.58894
▁concours	-9.58982
▁es	-9.59074
▁fonctionnement	-9.59121
▁numérique	-9.59348
▁tellement	-9.59491
▁Découvrez	-9.59543
entrée	-9.59752
▁to	-9.5981
do	-9.59812
▁sort	-9.5982
▁penser	-9.59849
▁faisant	-9.59968
ordre	-9.6007
▁total	-9.60132
▁livres	-9.60137
è	-9.60194
▁dés	-9.60236
▁réseaux	-9.6024
▁Al	-9.60261
car	-9.60266
▁maladie	-9.60398
▁caractère	-9.60484
là	-9.60611
▁ami	-9.60721
▁publié	-9.60744
▁consommation	-9.60806
*	-9.6081
▁mi	-9.60813
▁commencer	-9.61071
▁pleine	-9.61075
▁puissance	-9.61105
rait	-9.61139
▁sélection	-9.61213
▁retrouve	-9.61242
▁sud	-9.61262
▁feu	-9.613
▁confort	-9.61312
▁soins	-9.61329
▁devez	-9.6134
▁films	-9.61706
mo	-9.61746
dessous	-9.61833
expérience	-9.62074
▁arrive	-9.62118
▁piscine	-9.62248
▁partenaires	-9.62314
▁véhicule	-9.6246
▁présentation	-9.62469
▁Chaque	-9.62487
achat	-9.62523
▁magnifique	-9.62589
▁dessus	-9.62631
Union	-9.62681
▁image	-9.63131
ka	-9.63138
▁risques	-9.63159
▁telle	-9.63202
▁partout	-9.63229
▁seconde	-9.63537
▁Québec	-9.63617
▁livraison	-9.63662
▁trouverez	-9.63906
▁recevoir	-9.64112
▁post	-9.64113
▁montant	-9.64118
importe	-9.64147
▁documents	-9.64439
ti	-9.64529
▁groupes	-9.6465
▁troisième	-9.6471
▁commerce	-9.64715
istes	-9.64848
▁concerne	-9.64854
▁port	-9.65156
▁complète	-9.65168
▁pose	-9.65279
UE	-9.65384
Z	-9.65425
accord	-9.6543
pa	-9.65434
▁parfaitement	-9.65475
▁tels	-9.6551
▁règlement	-9.6562
▁vidéos	-9.65626
▁éviter	-9.65738
▁partage	-9.65749
▁—	-9.65861
▁dossier	-9.66007
▁crédit	-9.66011
▁joueurs	-9.66118
▁v	-9.66181
▁européenne	-9.66209
per	-9.66359
aï	-9.66382
q	-9.66432
▁parfait	-9.66451
▁présenter	-9.66469
▁moyenne	-9.66544
▁capacité	-9.66578
▁participer	-9.66595
mé	-9.66607
▁location	-9.66647
▁efficace	-9.66723
▁repas	-9.66791
euse	-9.66886
▁bain	-9.66922
▁tendance	-9.67054
▁processus	-9.67097
che	-9.67367
▁commun	-9.67535
▁Etats	-9.67538
▁études	-9.6757
??	-9.67594
▁verre	-9.67636
▁bonnes	-9.677
nes	-9.67787
ions	-9.67905
land	-9.68032
▁adresse	-9.68121
▁Belgique	-9.68146
▁nord	-9.68277
sur	-9.68423
▁annonces	-9.68425
im	-9.68429
▁goût	-9.68473
▁court	-9.68476
▁Selon	-9.68482
Europe	-9.68554
▁choisi	-9.68568
▁fonds	-9.6859
▁tiers	-9.68606
informations	-9.68678
▁Louis	-9.68828
@	-9.68925
▁voie	-9.68944
▁Facebook	-9.68955
▁outils	-9.69097
▁gaz	-9.69206
▁Marie	-9.69213
▁bras	-9.69265
▁format	-9.69287
▁forte	-9.6931
▁paiement	-9.69343
▁finalement	-9.69379
▁découverte	-9.69438
▁utilisateurs	-9.69456
▁entièrement	-9.69461
▁ressources	-9.69526
▁développer	-9.69644
▁chaleur	-9.69646
▁bons	-9.69655
▁suffit	-9.69681
ette	-9.69738
▁gagner	-9.6991
▁Femme	-9.69975
ite	-9.69978
▁aime	-9.70051
▁www	-9.70283
hésitez	-9.70319
▁patrimoine	-9.70561
▁naturel	-9.70577
mer	-9.70609
▁pouvait	-9.70673
▁porter	-9.70708
▁joue	-9.70747
▁Cependant	-9.70927
dessus	-9.70942
▁Ta	-9.70952
▁relations	-9.71013
▁week	-9.71069
▁maximum	-9.71302
▁réalisation	-9.71349
▁édition	-9.71397
▁inscription	-9.7156
enfant	-9.71643
▁Sans	-9.71663
▁Voir	-9.71806
▁bio	-9.71811
accueil	-9.71834
tra	-9.7187
▁délai	-9.71889
▁mémoire	-9.71936
▁hauteur	-9.7198
▁application	-9.71986
fi	-9.72273
▁mondiale	-9.72293
▁croissance	-9.72346
avez	-9.7235
▁transport	-9.72402
▁Même	-9.72449
▁Prix	-9.72522
▁carrière	-9.72536
▁moderne	-9.72572
▁logiciel	-9.72597
▁poids	-9.72633
▁manger	-9.72653
▁distance	-9.72703
établissement	-9.72747
▁puisse	-9.72842
▁beauté	-9.72858
impression	-9.7286
des	-9.72935
▁Donc	-9.73042
tique	-9.73073
▁dix	-9.73084
▁vois	-9.73126
▁direct	-9.73128
▁technologie	-9.73197
▁bonheur	-9.73259
▁voilà	-9.73347
▁structure	-9.7335
▁(...)	-9.73374
âge	-9.73394
▁importante	-9.73463
▁second	-9.7347
▁compétences	-9.73539
▁comprend	-9.73553
▁visage	-9.73597
up	-9.73729
▁al	-9.73746
▁Elles	-9.73799
▁faisait	-9.73811
▁80	-9.73965
▁Art	-9.73973
▁mercredi	-9.73991
▁cependant	-9.7401
▁dû	-9.74062
▁clair	-9.74207
ouverture	-9.74271
▁100%	-9.74277
▁Ha	-9.74286
▁acheter	-9.74399
ga	-9.74535
▁familles	-9.74695
▁LE	-9.74708
isation	-9.74748
▁modèles	-9.74827
▁bar	-9.7483
▁classique	-9.74936
organisation	-9.74961
▁répond	-9.75024
▁Paul	-9.75162
▁navigation	-9.75167
▁continue	-9.75168
voir	-9.75224
▁animaux	-9.75315
▁sociétés	-9.75319
▁fera	-9.75329
▁demi	-9.75344
▁types	-9.75347
▁historique	-9.75648
▁pieds	-9.75673
▁régulièrement	-9.75711
▁New	-9.75799
▁voulez	-9.75824
▁or	-9.759
res	-9.75922
▁ancien	-9.75924
▁responsabilité	-9.75964
▁Mont	-9.75991
avant	-9.76056
▁conscience	-9.7609
▁idéal	-9.76175
▁voici	-9.76224
▁agréable	-9.76338
▁machine	-9.76365
environnement	-9.76426
▁directeur	-9.76448
▁Mo	-9.76457
▁parties	-9.76484
▁poser	-9.7652
▁propriété	-9.76533
▁internationale	-9.76554
▁bleu	-9.76562
▁Me	-9.766
▁vieux	-9.76632
▁Très	-9.76663
▁nécessaires	-9.76769
+	-9.76876
▁objets	-9.77043
▁Lyon	-9.7706
époque	-9.77101
▁jeudi	-9.77118
▁Ville	-9.77177
intérêt	-9.77287
▁attention	-9.77487
▁roman	-9.77542
▁paix	-9.7756
▁document	-9.77596
▁cartes	-9.77715
ke	-9.77817
▁$	-9.77945
▁k	-9.77947
▁Qui	-9.78001
▁cinéma	-9.78015
▁(19	-9.78042
▁cuir	-9.78057
▁surface	-9.78486
▁appartement	-9.78515
▁vitesse	-9.78666
▁montrer	-9.78706
▁objectif	-9.78755
▁compter	-9.78789
▁note	-9.78831
▁rêve	-9.78967
▁textes	-9.79029
▁intérieur	-9.79044
▁liés	-9.7909
▁tenue	-9.79106
▁réserve	-9.7922
io	-9.79221
▁chercher	-9.79277
▁Puis	-9.79281
oc	-9.79304
▁peinture	-9.79436
▁Bar	-9.79456
pour	-9.79467
▁établissements	-9.79574
ang	-9.79625
▁Nicole	-9.79674
▁liens	-9.79775
▁pouvons	-9.79871
▁perdu	-9.79884
▁vision	-9.799
ba	-9.79912
▁quant	-9.79974
▁micro	-9.79976
▁volonté	-9.80009
▁su	-9.80056
min	-9.8015
▁premières	-9.80208
▁habitants	-9.80224
mi	-9.80378
rencontre	-9.80411
▁Nicolas	-9.80473
▁Pourquoi	-9.80494
▁personnages	-9.80523
40	-9.80532
▁entendu	-9.80559
sse	-9.80657
â	-9.80687
▁Page	-9.80744
▁commentaires	-9.80855
▁courant	-9.8093
▁Suisse	-9.81046
▁six	-9.81055
▁70	-9.81056
▁El	-9.81145
▁dispose	-9.81186
iv	-9.81229
▁garder	-9.81287
▁inter	-9.81328
▁milliers	-9.81366
▁marques	-9.81396
▁Ar	-9.81427
»,	-9.81485
▁Commission	-9.81537
ables	-9.81555
▁étudiants	-9.81591
net	-9.81601
▁anglais	-9.81651
▁riche	-9.81653
Lire	-9.81688
mon	-9.81754
▁champ	-9.81772
▁eau	-9.81836
ver	-9.81956
].	-9.82072
▁endroit	-9.82199
huile	-9.82237
▁passant	-9.82274
▁conception	-9.8241
▁lutte	-9.82467
▁villes	-9.82556
Il	-9.82605
▁Val	-9.8262
▁mardi	-9.82667
▁1.	-9.82693
▁publics	-9.82734
▁fête	-9.82734
▁gratuitement	-9.82817
▁mobile	-9.82915
assurance	-9.82946
▁peuple	-9.82986
▁Na	-9.82986
▁sang	-9.83096
▁regarder	-9.83097
▁utilisation	-9.83129
▁auto	-9.83221
ienne	-9.83221
installation	-9.83239
▁tenu	-9.83245
tant	-9.8326
▁régime	-9.83266
▁réussi	-9.83268
ive	-9.83348
▁différence	-9.83386
▁sérieux	-9.83407
▁soin	-9.83498
▁accord	-9.83607
▁explique	-9.83703
Je	-9.83758
èrent	-9.83797
▁principe	-9.83834
▁siège	-9.83863
tes	-9.83963
▁Accueil	-9.84159
▁mètres	-9.84187
▁sac	-9.84205
ig	-9.84221
▁justice	-9.84232
ise	-9.84239
▁financement	-9.84255
der	-9.84308
▁commencé	-9.8452
▁final	-9.84562
▁logement	-9.84564
▁air	-9.84627
▁effets	-9.84662
▁prévu	-9.84728
▁Forum	-9.84753
▁Canada	-9.84904
ron	-9.84945
▁fournir	-9.85
tion	-9.85044
▁mail	-9.85077
▁locaux	-9.85098
▁lu	-9.85123
▁police	-9.85399
▁porno	-9.85429
▁méthode	-9.8544
▁2000	-9.85489
▁mm	-9.85497
▁permettra	-9.85561
▁section	-9.85615
▁faite	-9.85663
▁guide	-9.85776
▁complètement	-9.85779
ko	-9.85991
▁change	-9.86038
▁célèbre	-9.86043
lin	-9.86053
▁assurer	-9.86072
vis	-9.86079
▁raisons	-9.86121
▁médias	-9.86181
▁voire	-9.86196
15	-9.86236
▁acteurs	-9.86258
▁magasin	-9.86486
▁allez	-9.86503
▁support	-9.86518
▁offrir	-9.86528
▁200	-9.86558
▁musée	-9.86569
▁devenu	-9.86609
▁fer	-9.86659
aller	-9.86682
▁paragraphe	-9.86706
▁messages	-9.86829
lu	-9.86852
=	-9.86884
▁portes	-9.86973
ak	-9.86973
▁finale	-9.86989
▁sauf	-9.87
▁Société	-9.87042
▁fruits	-9.87063
▁viens	-9.8711
▁@	-9.87154
▁systèmes	-9.87165
▁généralement	-9.87183
>	-9.87423
▁froid	-9.87455
▁valeurs	-9.8748
▁local	-9.87491
▁naissance	-9.87509
▁personnelles	-9.87536
▁concept	-9.87631
▁preuve	-9.8776
▁équipes	-9.87966
▁formes	-9.87969
20	-9.88005
▁Cour	-9.88037
▁signe	-9.88094
▁Avant	-9.8816
▁résidence	-9.88175
▁environnement	-9.88197
▁nouvel	-9.88213
ologie	-9.88335
▁Go	-9.88383
▁utilise	-9.88418
▁limite	-9.88551
▁perdre	-9.88553
▁Cor	-9.88554
▁réel	-9.88584
ha	-9.88708
avec	-9.88765
▁parc	-9.8877
▁continuer	-9.88773
em	-9.88787
ois	-9.88793
▁testaments	-9.88804
▁boutique	-9.88869
▁participation	-9.88944
▁touche	-9.88961
▁rendu	-9.89041
▁international	-9.89104
objectif	-9.89157
▁veulent	-9.89244
▁90	-9.89355
bi	-9.89362
▁Tour	-9.89391
▁Google	-9.89444
▁demandé	-9.89452
▁35	-9.89548
▁2008	-9.89638
▁500	-9.89795
espère	-9.89856
gu	-9.89943
ér	-9.89999
▁vert	-9.90053
▁france	-9.90118
▁étude	-9.90156
▁plage	-9.90171
cher	-9.9025
▁vendre	-9.90315
▁bientôt	-9.90322
▁modifier	-9.90346
op	-9.90369
▁durable	-9.90406
▁saint	-9.90495
▁possède	-9.90522
▁45	-9.9053
▁condition	-9.9056
ph	-9.90642
▁payer	-9.90683
▁Moi	-9.90901
▁art	-9.90942
utiliser	-9.90959
▁privé	-9.91001
En	-9.9102
▁mondial	-9.91095
▁chaud	-9.91105
50	-9.91109
▁énergie	-9.9119
▁restaurant	-9.91307
▁vit	-9.91371
ap	-9.91549
▁sujets	-9.91586
▁Pi	-9.91698
▁faible	-9.91704
▁apprendre	-9.91758
cé	-9.91817
24	-9.91875
▁Po	-9.91971
▁né	-9.92002
▁Rue	-9.92119
▁tenir	-9.92162
bo	-9.92319
▁profil	-9.92431
mail	-9.92466
."	-9.92498
▁personnage	-9.92513
iez	-9.92519
▁beaux	-9.92558
▁escort	-9.92564
▁2007	-9.92707
▁combat	-9.92814
21	-9.92909
▁prochaine	-9.93026
▁préparation	-9.931
▁test	-9.93142
▁bébé	-9.93196
11	-9.93248
▁termes	-9.93263
▁médecin	-9.93388
▁critique	-9.93397
▁Grâce	-9.93434
▁tient	-9.93443
▁Noël	-9.93615
▁ET	-9.93664
▁cour	-9.93673
évolution	-9.93687
▁pierre	-9.93727
▁caractéristique	-9.9373
▁amour	-9.93829
tt	-9.93833
▁offres	-9.93878
▁Chine	-9.93932
▁Deux	-9.93953
▁fichier	-9.93958
▁vent	-9.93988
▁revenir	-9.94051
▁consulter	-9.94068
▁entier	-9.94089
▁action	-9.94127
IN	-9.94241
▁cheveux	-9.94274
▁dois	-9.94285
ière	-9.9435
France	-9.94368
▁café	-9.94585
cu	-9.94591
▁passion	-9.94597
▁propriétaire	-9.94634
line	-9.94839
▁emploi	-9.9484
chi	-9.94856
45	-9.94869
▁privée	-9.94887
▁objet	-9.94926
▁recette	-9.94939
▁annoncé	-9.94978
▁majorité	-9.95001
▁Jacques	-9.95147
▁lancer	-9.95187
▁vin	-9.95264
▁représente	-9.95282
▁visiter	-9.9531
▁supérieur	-9.95497
▁spectacle	-9.95624
▁contexte	-9.95643
étude	-9.95683
▁crise	-9.95725
▁o	-9.95815
▁classement	-9.95818
▁ferme	-9.95863
▁coût	-9.95869
pi	-9.95915
▁communes	-9.95918
▁bénéficier	-9.96009
▁détails	-9.96051
économie	-9.96104
▁juge	-9.96109
▁Nouvelle	-9.96194
ade	-9.9622
▁objectifs	-9.96245
▁budget	-9.96256
▁ait	-9.96437
▁lettre	-9.96443
▁for	-9.96494
▁description	-9.96534
▁Di	-9.96587
▁intéressant	-9.96598
ger	-9.96613
▁diverses	-9.96667
▁essayer	-9.96668
▁coin	-9.96675
▁principalement	-9.96687
hôtel	-9.96829
▁noter	-9.96893
ho	-9.96943
▁particuliers	-9.96952
▁pensée	-9.96979
18	-9.97098
▁garantie	-9.9717
▁mélange	-9.97249
▁Mar	-9.97289
ll	-9.97392
ab	-9.97395
▁mini	-9.97426
ille	-9.976
utilisateur	-9.9777
▁sept	-9.97774
moi	-9.97867
▁gérer	-9.97929
▁Montréal	-9.97955
va	-9.98056
▁per	-9.98213
▁=	-9.98247
▁métier	-9.98255
▁commentaire	-9.98287
ty	-9.98312
▁électronique	-9.98336
▁fini	-9.98378
gé	-9.98379
▁gay	-9.98408
▁sinon	-9.98424
▁séance	-9.98488
▁occasion	-9.98611
▁minimum	-9.98613
▁meilleures	-9.98666
▁pression	-9.98728
cm	-9.98829
▁profit	-9.98928
▁vide	-9.98975
dire	-9.99015
▁américain	-9.99034
».	-9.99094
exposition	-9.99098
▁heureux	-9.99172
▁château	-9.99255
▁Perrin	-9.99259
▁mari	-9.99297
▁Pays	-9.99305
▁Philippe	-9.99382
▁réunion	-9.99399
▁Service	-9.99448
▁humaine	-9.99453
▁plateforme	-9.99619
▁télé	-9.99629
ja	-9.99674
▁joie	-9.99846
vi	-9.99848
son	-9.99982
mes	-10.0001
▁2005	-10.0007
vo	-10.001
▁victoire	-10.0013
12	-10.0025
▁davantage	-10.0039
▁vaut	-10.0043
arrivée	-10.0045
▁véhicules	-10.0046
▁be	-10.005
▁affaires	-10.0051
▁longueur	-10.0056
▁principal	-10.0057
▁artistes	-10.0058
▁bouche	-10.006
▁informatique	-10.007
nant	-10.0077
▁réception	-10.0077
▁voulu	-10.0078
▁certaine	-10.0083
▁Gu	-10.0084
▁fichiers	-10.0086
▁min	-10.0089
▁(2)	-10.0092
Q	-10.0095
/2	-10.0096
▁neuf	-10.0104
▁établissement	-10.011
▁protéger	-10.0113
▁évidemment	-10.0128
▁collaboration	-10.0128
▁Per	-10.013
▁dehors	-10.0136
entretien	-10.0145
▁mêmes	-10.019
ché	-10.0197
▁partenaire	-10.0204
▁outre	-10.0205
offre	-10.0207
▁croire	-10.0213
inscription	-10.0217
▁i	-10.0219
▁située	-10.0229
▁événements	-10.0236
▁plans	-10.0239
▁conformément	-10.0248
▁sourire	-10.0266
od	-10.027
▁radio	-10.027
▁jeunesse	-10.0271
▁stratégie	-10.0274
▁arriver	-10.0275
analyse	-10.0276
▁capitale	-10.0281
▁démarche	-10.0292
▁sympa	-10.03
▁Chantelou	-10.03
▁moitié	-10.03
▁réduire	-10.0301
▁composé	-10.0308
▁perte	-10.0312
pro	-10.0318
▁convient	-10.0319
delà	-10.0329
▁com	-10.0344
▁roi	-10.0346
▁rejoindre	-10.0352
▁époque	-10.0359
▁trans	-10.0359
▁licence	-10.0364
▁prises	-10.0366
▁présenté	-10.0368
▁mauvais	-10.037
▁théâtre	-10.0374
où	-10.0376
tic	-10.0391
▁âge	-10.0391
▁tableau	-10.0391
▁défaut	-10.0399
appel	-10.04
▁po	-10.0409
▁multi	-10.0417
non	-10.0421
▁utilisant	-10.0423
▁décoration	-10.0425
▁Entre	-10.0428
ants	-10.0429
▁scolaire	-10.0439
▁hier	-10.0441
▁journal	-10.0442
enseignement	-10.0446
▁fonctions	-10.045
▁fleurs	-10.0455
▁puisqu	-10.0477
Université	-10.0482
▁zones	-10.0483
▁pourront	-10.0492
avenir	-10.051
▁devait	-10.0511
▁forcément	-10.0512
▁Club	-10.0516
▁top	-10.0522
13	-10.0528
▁améliorer	-10.0529
▁viennent	-10.053
▁surprise	-10.0532
▁Lors	-10.055
▁procédure	-10.0561
▁ciel	-10.0561
▁ouverte	-10.0569
▁Bo	-10.057
▁correspond	-10.0574
hiver	-10.061
▁surveillance	-10.0612
avons	-10.0616
▁Toute	-10.0616
▁association	-10.0635
▁foi	-10.0638
▁chaude	-10.0646
▁grosse	-10.065
let	-10.0651
▁moments	-10.0652
▁travaille	-10.0656
▁Parce	-10.0657
▁étape	-10.0657
▁ordinateur	-10.0661
▁oublier	-10.067
▁futur	-10.0671
▁réduction	-10.0671
▁européen	-10.0674
ttes	-10.0674
▁terrasse	-10.0683
mar	-10.0686
▁élevé	-10.0687
▁servir	-10.0688
▁vérité	-10.0689
▁tandis	-10.0689
adore	-10.0695
▁toutefois	-10.0725
▁proches	-10.0729
▁adultes	-10.0733
ES	-10.0734
ign	-10.0735
80	-10.0738
rou	-10.0739
▁finir	-10.0755
▁with	-10.0761
▁rappelle	-10.0762
ns	-10.0763
▁Certains	-10.0763
▁scientifique	-10.0765
▁01	-10.0768
▁Ni	-10.0776
▁DU	-10.0782
▁dispositions	-10.0783
ans	-10.0791
▁Quelle	-10.0792
▁300	-10.0806
▁faudra	-10.0814
▁Cap	-10.0815
▁36	-10.0815
▁populaire	-10.0818
▁impossible	-10.0821
▁Pa	-10.0821
ON	-10.0823
▁outil	-10.0828
hi	-10.0828
▁analyse	-10.0834
▁préparer	-10.0836
▁cadeau	-10.0837
▁réussite	-10.0839
▁professeur	-10.084
▁somme	-10.0847
▁principaux	-10.0852
▁milliards	-10.0853
▁Blog	-10.0865
▁recherches	-10.0872
▁plat	-10.0879
▁proposons	-10.0879
▁dessin	-10.0881
▁arrière	-10.0881
île	-10.0883
▁mur	-10.0886
iques	-10.09
écran	-10.0901
▁jolie	-10.0901
▁joueur	-10.0902
ide	-10.0905
▁récemment	-10.0908
▁technologies	-10.0916
ien	-10.0922
▁telles	-10.0926
▁défense	-10.0938
▁lignes	-10.0939
!!!	-10.0942
▁écoles	-10.0945
▁^^	-10.0952
mais	-10.0973
▁école	-10.0975
▁Groupe	-10.0983
▁bâtiment	-10.0989
▁information	-10.0994
▁Rencontres	-10.0996
▁apporter	-10.0998
▁aimé	-10.1
ue	-10.1
▁Grande	-10.1006
▁pouvant	-10.1007
▁capable	-10.1008
pas	-10.1012
ancien	-10.1013
ative	-10.1014
35	-10.1022
▁connaissances	-10.1025
25	-10.1032
ate	-10.1035
!!	-10.1036
▁Charles	-10.1037
▁attendre	-10.1039
▁vivant	-10.1044
▁destination	-10.1046
▁publication	-10.1052
gi	-10.1053
▁Vi	-10.1053
07	-10.106
▁proposé	-10.106
ip	-10.1068
▁Salle	-10.1069
administration	-10.1069
▁arbres	-10.1069
extérieur	-10.1069
▁Juifs	-10.107
▁précise	-10.1086
▁économiques	-10.1089
aurais	-10.1091
▁Claude	-10.1101
ber	-10.1101
▁certainement	-10.1105
▁parfaite	-10.1106
and	-10.1114
▁chien	-10.1124
église	-10.1126
▁Robert	-10.1132
▁inventaires	-10.1137
alité	-10.1138
▁difficultés	-10.114
▁comportement	-10.1145
▁Gi	-10.1164
▁sociales	-10.1166
▁Dr	-10.117
ist	-10.1173
▁33	-10.1175
▁faux	-10.1176
▁réflexion	-10.1179
euros	-10.118
▁détail	-10.1181
▁tôt	-10.1183
▁devis	-10.1184
▁consiste	-10.1186
▁girl	-10.1187
org	-10.1187
▁Pendant	-10.1188
▁déco	-10.1196
nel	-10.1197
▁Publié	-10.12
▁basse	-10.1203
▁Culture	-10.1206
▁statut	-10.121
▁col	-10.1213
99	-10.1213
ana	-10.1214
▁->	-10.1214
▁Quel	-10.1215
▁niveaux	-10.1223
▁(1	-10.1231
▁construire	-10.1231
▁forces	-10.1239
vé	-10.1243
▁sucre	-10.1245
▁chauffage	-10.1248
▁Da	-10.1251
▁appareil	-10.1251
▁sentiment	-10.1254
▁conférence	-10.1266
out	-10.1266
▁clé	-10.1268
▁sexy	-10.1271
▁vérifier	-10.1273
univers	-10.1279
▁remise	-10.1282
▁fallait	-10.1283
▁normal	-10.129
▁Man	-10.1293
▁applications	-10.1299
▁frère	-10.1305
▁humain	-10.1308
cha	-10.131
▁(16	-10.1313
▁prestations	-10.1315
âme	-10.1324
eu	-10.1329
▁naturelle	-10.1336
▁température	-10.1336
▁Ses	-10.1337
▁parole	-10.1338
▁Be	-10.1339
▁domaines	-10.1345
▁approche	-10.1345
▁formulaire	-10.1355
éducation	-10.1356
Afrique	-10.1357
23	-10.1359
▁Voilà	-10.136
▁signifie	-10.1362
▁immédiatement	-10.1364
▁chargé	-10.1371
▁prévue	-10.1371
▁critères	-10.1378
▁David	-10.138
▁fonctionne	-10.1383
lan	-10.1388
▁officiel	-10.1394
▁portée	-10.1394
▁boîte	-10.1397
▁32	-10.1401
▁absolument	-10.1402
▁Con	-10.1405
▁génération	-10.1415
▁bi	-10.1417
▁revient	-10.1418
▁tomber	-10.1435
▁savez	-10.1438
▁ministère	-10.144
▁mauvaise	-10.1441
▁masse	-10.1441
▁associations	-10.1444
▁participants	-10.1451
▁partenariat	-10.1454
▁programmes	-10.1455
▁lesquels	-10.1457
▁conseiller	-10.1458
▁album	-10.1461
▁pêche	-10.1473
ah	-10.1484
▁anciens	-10.1497
/3	-10.1504
▁Coupe	-10.1507
industrie	-10.1517
22	-10.1518
iser	-10.1524
▁compétentes	-10.1526
▁religion	-10.1541
▁four	-10.155
▁retard	-10.1555
autant	-10.1559
▁organisé	-10.1563
lot	-10.1567
pé	-10.157
▁rythme	-10.1574
actualité	-10.1574
▁chocolat	-10.158
arrive	-10.158
▁conduite	-10.1585
26	-10.1592
▁résistance	-10.1594
▁maladies	-10.1605
IS	-10.1605
06	-10.1606
04	-10.161
▁atteint	-10.1617
▁Afin	-10.1619
▁effectuer	-10.1626
▁plantes	-10.1634
▁performance	-10.1638
▁esprit	-10.1639
▁allait	-10.1641
▁ceci	-10.1643
ateurs	-10.1646
▁fabrication	-10.1654
19	-10.1656
▁extérieur	-10.1656
▁matériaux	-10.1657
bas	-10.1668
▁Monde	-10.1672
auto	-10.1672
▁circuit	-10.1682
▁financière	-10.1686
▁débat	-10.1701
▁couverture	-10.1703
avance	-10.1704
▁charme	-10.1706
▁Petit	-10.1711
▁contient	-10.1713
▁maître	-10.1715
▁quantité	-10.1716
aise	-10.1716
▁Haute	-10.1719
▁pire	-10.172
▁bouton	-10.1722
▁défi	-10.1723
▁ajouter	-10.1724
▁tarifs	-10.1731
ub	-10.1733
▁constitue	-10.1733
▁printemps	-10.1733
▁acceptez	-10.1736
▁tenter	-10.1741
nu	-10.1744
▁mises	-10.1745
▁(€	-10.175
uks	-10.175
▁perd	-10.1751
▁probablement	-10.1758
▁Code	-10.1773
tel	-10.1774
▁Terre	-10.1786
▁transfert	-10.1797
▁Président	-10.18
mont	-10.1802
mb	-10.1804
▁cité	-10.181
▁déclaré	-10.1814
illon	-10.1815
▁phase	-10.1817
▁dur	-10.1818
▁présents	-10.182
ts	-10.1824
▁confortable	-10.1832
▁superbe	-10.184
▁meme	-10.1844
▁auteur	-10.1847
faire	-10.1851
▁douche	-10.1856
ers	-10.1857
▁accessible	-10.1861
vent	-10.1878
▁suivante	-10.1879
▁accessoires	-10.188
16	-10.1881
▁calcul	-10.1882
▁marketing	-10.1886
▁douce	-10.1887
▁multiples	-10.1888
▁Bou	-10.1889
▁largement	-10.1892
▁auteurs	-10.1896
▁cliquez	-10.1902
▁Recherche	-10.1905
▁aurez	-10.1913
http	-10.1918
▁légèrement	-10.1921
▁planète	-10.1922
▁graphique	-10.1932
▁lance	-10.1932
▁indiqué	-10.1934
▁suivantes	-10.194
▁dispositif	-10.1942
▁réponses	-10.1944
▁2006	-10.1951
▁Dè	-10.1952
▁principale	-10.1963
▁Porte	-10.1964
ff	-10.1965
▁fins	-10.1967
▁tombe	-10.197
née	-10.1974
▁Noir	-10.1975
▁lendemain	-10.1977
▁totale	-10.1979
▁options	-10.1986
▁interne	-10.1988
gre	-10.1991
60	-10.1993
▁responsables	-10.1997
▁rare	-10.1999
▁Afrique	-10.2
▁patients	-10.2002
AL	-10.2007
▁entrée	-10.2011
▁portant	-10.2012
▁fan	-10.2017
▁vouloir	-10.2018
ud	-10.202
▁capital	-10.2028
▁allons	-10.2029
▁respecter	-10.2032
▁serez	-10.2041
antes	-10.2044
▁militaire	-10.2046
▁régions	-10.2051
iens	-10.2053
aires	-10.2053
▁comptes	-10.2054
▁chaussures	-10.2055
▁hôtel	-10.2056
▁robe	-10.2057
▁télécharger	-10.206
▁joué	-10.206
▁maire	-10.2062
▁violence	-10.2072
▁rose	-10.2074
▁pourraient	-10.208
▁tente	-10.2085
▁doux	-10.2086
▁laissé	-10.2088
▁moindre	-10.209
▁sert	-10.2093
▁Leur	-10.2098
▁vigueur	-10.21
▁discours	-10.2101
▁équipements	-10.2122
▁centrale	-10.2122
▁recettes	-10.213
▁tissu	-10.2133
▁dynamique	-10.2136
annonce	-10.2141
▁blanche	-10.2142
▁veille	-10.2148
▁clairement	-10.2148
▁montagne	-10.2152
▁chiffre	-10.2153
▁rire	-10.2154
▁civile	-10.2155
▁festival	-10.2157
▁Ben	-10.2158
▁agence	-10.2162
▁excellent	-10.2167
▁clés	-10.2168
LE	-10.2168
▁vaste	-10.2171
▁spécialiste	-10.2174
▁coupe	-10.218
▁performances	-10.2184
▁bel	-10.2188
RE	-10.2192
▁mouvements	-10.2194
▁complexe	-10.2195
app	-10.2196
▁Cha	-10.2199
▁maisons	-10.22
▁utile	-10.2204
▁demain	-10.2208
▁gr	-10.2209
▁An	-10.2217
▁pr	-10.222
▁vêtements	-10.2222
▁marchés	-10.2222
▁voulais	-10.2226
-2	-10.2228
▁dollars	-10.2237
▁Pourtant	-10.2237
▁douleur	-10.2238
ag	-10.2238
usage	-10.2247
midi	-10.2252
exploitation	-10.2253
▁EN	-10.2259
ques	-10.2267
▁précédent	-10.2267
▁Chambre	-10.2272
▁net	-10.2276
ER	-10.2277
ob	-10.2279
▁arrivée	-10.2279
▁commercial	-10.228
29	-10.228
▁américaine	-10.2285
▁baisse	-10.2285
▁Am	-10.2286
▁2.	-10.2294
▁logique	-10.2295
ris	-10.2299
Re	-10.2309
▁revue	-10.2311
isé	-10.2312
▁voitures	-10.232
▁installation	-10.232
▁citoyens	-10.2324
▁Laurent	-10.2328
▁distribution	-10.2334
▁intérieure	-10.2342
tro	-10.2344
17	-10.2345
▁chaîne	-10.2346
▁tri	-10.2347
▁fr	-10.2351
▁crème	-10.2354
sion	-10.2359
ey	-10.236
▁côtés	-10.2361
fa	-10.2362
▁vélo	-10.2365
▁opérations	-10.2367
ence	-10.2369
▁normes	-10.2372
▁bateau	-10.2373
▁Retrouvez	-10.2374
▁visiteurs	-10.2378
importance	-10.2382
▁exigences	-10.2382
▁sentir	-10.239
▁secret	-10.239
EL	-10.2395
▁sources	-10.2396
▁Peut	-10.2402
▁promotion	-10.2404
▁apporte	-10.2406
▁connaît	-10.2407
▁Bi	-10.2408
▁méthodes	-10.2409
▁plastique	-10.2412
▁Jésus	-10.2417
▁demeure	-10.2418
▁relative	-10.2425
iers	-10.2429
▁menu	-10.2432
▁So	-10.2432
▁To	-10.2433
▁connais	-10.2438
▁volume	-10.2455
AS	-10.2461
▁truc	-10.2463
▁38	-10.2463
▁ouvrage	-10.2478
▁seuls	-10.248
▁salariés	-10.2482
existence	-10.2489
▁III	-10.2491
▁anniversaire	-10.2492
▁San	-10.2497
90	-10.25
▁plafond	-10.2503
14	-10.2505
▁intérêts	-10.2506
igne	-10.2512
vin	-10.2513
▁traiter	-10.2519
▁York	-10.252
▁espaces	-10.252
▁actes	-10.2523
▁stage	-10.2524
▁vraie	-10.2527
▁Christ	-10.2529
03	-10.253
▁Air	-10.2534
port	-10.2536
assurer	-10.2539
▁grave	-10.2552
▁avions	-10.2553
▁réellement	-10.2575
attention	-10.2578
ane	-10.2587
▁Ra	-10.2589
▁concert	-10.2591
▁Bref	-10.2592
▁pi	-10.2595
men	-10.2604
▁dépend	-10.2605
the	-10.2606
▁supérieure	-10.2606
▁juridique	-10.261
▁présentes	-10.2613
▁(2	-10.2615
▁chute	-10.2616
▁écrire	-10.2619
ies	-10.2622
▁Sous	-10.2626
▁voile	-10.2626
▁ancienne	-10.2632
▁événement	-10.2636
▁devoir	-10.2637
▁arrivé	-10.264
-1	-10.2641
▁venu	-10.2647
ssent	-10.2655
”,	-10.2657
▁No	-10.2673
▁oeuvre	-10.2676
▁DES	-10.2685
EN	-10.2685
▁construit	-10.2687
75	-10.2688
lle	-10.2696
▁atteindre	-10.2697
▁Ministère	-10.2699
agence	-10.2703
ze	-10.2705
ik	-10.2708
AP	-10.271
2,	-10.2713
▁spécifique	-10.2713
▁organisation	-10.2714
onne	-10.2727
▁cap	-10.2734
▁by	-10.2737
▁avantages	-10.274
▁recours	-10.2745
œuvre	-10.2759
armée	-10.2761
▁chanson	-10.2767
▁réparation	-10.2767
▁univers	-10.2771
▁indispensable	-10.2772
ales	-10.2773
▁39	-10.2774
▁découvert	-10.2777
ères	-10.2785
▁déjeuner	-10.2786
▁conduire	-10.279
▁Marseille	-10.2794
▁faveur	-10.281
▁attend	-10.2811
▁intérêt	-10.2818
▁désir	-10.2825
▁exposition	-10.2832
ages	-10.2842
OR	-10.2859
appelle	-10.2869
tin	-10.2871
▁changements	-10.2883
▁suivants	-10.2886
▁écran	-10.2888
janv	-10.289
▁(15	-10.289
habitude	-10.289
▁pa	-10.2902
▁pluie	-10.2902
▁proposition	-10.2905
▁fit	-10.2906
▁fou	-10.2911
effet	-10.2916
rez	-10.2918
▁générales	-10.2918
▁Mes	-10.2919
▁salles	-10.2921
▁changé	-10.2923
écoute	-10.2926
▁danger	-10.2926
▁alinéa	-10.2926
▁appelé	-10.2929
▁ultra	-10.2931
▁lancé	-10.2933
autorité	-10.2936
instant	-10.2939
▁lait	-10.2943
▁Monsieur	-10.2945
▁remettre	-10.2946
▁CO	-10.2955
▁obtenu	-10.2958
▁centres	-10.2965
▁Ensuite	-10.297
▁garantir	-10.2975
ck	-10.298
▁volet	-10.2983
▁acheté	-10.2985
mp	-10.2985
US	-10.2993
▁suit	-10.2993
▁cabinet	-10.2996
exercice	-10.3005
▁vingt	-10.3005
ient	-10.3006
▁assure	-10.3009
ix	-10.3011
▁effectivement	-10.3018
▁matières	-10.3022
▁Design	-10.3028
▁vécu	-10.3028
▁voulait	-10.3036
avis	-10.3039
▁Anne	-10.3049
...).	-10.3055
▁pointe	-10.3058
▁devra	-10.3059
▁disque	-10.306
▁lettres	-10.3065
▁décor	-10.3067
▁enquête	-10.307
In	-10.3085
bre	-10.3092
▁armes	-10.31
▁différent	-10.3102
▁vote	-10.3109
▁incroyable	-10.3117
▁restent	-10.3122
01	-10.3122
▁science	-10.3133
▁situations	-10.3135
▁partiel	-10.3135
▁devenue	-10.3136
▁directive	-10.3137
▁station	-10.3138
▁chiffres	-10.3139
▁pompe	-10.3142
▁PC	-10.3143
arrêt	-10.3149
lement	-10.3151
ssé	-10.3154
aider	-10.3157
rons	-10.3161
▁Va	-10.3164
▁porté	-10.3165
honneur	-10.3167
so	-10.3177
▁bilan	-10.3179
▁crée	-10.319
▁fortement	-10.3192
▁original	-10.3193
▁75	-10.3197
▁appris	-10.3197
▁br	-10.3201
▁joli	-10.3207
▁retraite	-10.3211
36	-10.3214
▁48	-10.3226
▁Ch	-10.3227
▁email	-10.3229
▁stock	-10.3229
▁tradition	-10.323
▁banque	-10.3234
2)	-10.3238
▁cru	-10.324
▁utilisés	-10.3243
▁34	-10.3244
▁Bruxelles	-10.3246
uff	-10.3247
▁rapports	-10.3247
▁logiciels	-10.3255
éro	-10.3262
rent	-10.3262
▁reprendre	-10.3272
▁stress	-10.3276
▁prennent	-10.3276
▁coups	-10.3278
▁pain	-10.328
▁indique	-10.3281
▁partages	-10.3285
tor	-10.329
▁luxe	-10.3292
▁150	-10.3292
▁relatives	-10.3296
▁humains	-10.3299
ole	-10.3301
Or	-10.3303
▁Article	-10.3307
▁tirer	-10.3311
▁pur	-10.3314
▁souffle	-10.3315
▁Windows	-10.3316
▁difficulté	-10.3326
▁ambiance	-10.3328
▁précis	-10.333
▁figure	-10.333
expression	-10.3331
ow	-10.3334
▁Ka	-10.3335
▁faciliter	-10.3342
▁video	-10.335
▁rencontré	-10.3359
▁revanche	-10.336
▁maman	-10.3367
▁scientifiques	-10.3382
▁actuelle	-10.3383
lie	-10.3384
▁Sainte	-10.3389
▁renseignements	-10.339
▁terminée	-10.3393
39	-10.3398
▁énergétique	-10.3398
▁soumis	-10.3406
▁définition	-10.3411
▁Patrice	-10.3411
om	-10.3412
▁Bernard	-10.3413
▁ski	-10.3414
▁assurance	-10.3419
▁Maroc	-10.342
▁forêt	-10.3422
▁langage	-10.3431
▁Parmi	-10.3435
▁réforme	-10.3438
▁artistique	-10.3447
▁accéder	-10.3449
Est	-10.345
▁métiers	-10.3455
▁secondes	-10.3458
ino	-10.3468
▁invités	-10.3469
▁achat	-10.3471
▁hiver	-10.3472
▁obligatoire	-10.3477
28	-10.3478
▁meuble	-10.3481
▁cesse	-10.3483
▁usage	-10.3486
▁invite	-10.3487
DI	-10.349
▁Faire	-10.349
▁légumes	-10.3493
▁personnalité	-10.3495
▁TV	-10.3496
▁Quant	-10.3503
▁Ceci	-10.3506
ran	-10.3509
▁adapté	-10.3512
▁Belle	-10.3515
dia	-10.3518
affaire	-10.3519
eme	-10.3519
▁mérite	-10.3521
▁télévision	-10.3527
▁Jardin	-10.3531
ker	-10.3532
ina	-10.3535
▁André	-10.3537
ami	-10.354
▁gratuites	-10.3542
▁demandes	-10.3544
▁coussin	-10.3551
▁camping	-10.3552
aud	-10.3553
affaires	-10.3553
▁personnelle	-10.3554
▁liées	-10.3562
▁léger	-10.3569
▁mé	-10.3569
▁affaire	-10.357
▁Vos	-10.3572
▁mec	-10.3573
▁2002	-10.3575
▁immobilier	-10.3578
▁souci	-10.3584
▁particulière	-10.3584
▁conçu	-10.3585
cer	-10.3589
▁simples	-10.3593
▁collectif	-10.3593
▁Japon	-10.3599
ose	-10.3601
▁ha	-10.3603
▁Bordeaux	-10.3603
▁Mer	-10.3606
ica	-10.3609
31	-10.3612
▁2004	-10.3612
27	-10.3614
ations	-10.3617
▁réservation	-10.3618
by	-10.3618
▁spécifiques	-10.3623
▁sent	-10.3629
▁©	-10.3629
38	-10.3631
▁mille	-10.3632
Art	-10.3632
val	-10.3635
▁faute	-10.365
▁locale	-10.3653
▁tester	-10.3654
▁monter	-10.3655
▁dédié	-10.3656
▁Apple	-10.366
▁publiques	-10.3664
▁garçon	-10.3667
absence	-10.3669
▁publicité	-10.3672
▁Comité	-10.3672
▁justement	-10.3673
▁ri	-10.3678
▁Ga	-10.3681
▁fiche	-10.3683
▁envoyer	-10.3683
/4	-10.3684
échange	-10.3684
▁Star	-10.3686
▁victimes	-10.3691
▁2018.	-10.3693
évaluation	-10.3694
▁Malgré	-10.3696
▁thé	-10.3696
▁prison	-10.3696
▁comité	-10.3699
▁Ver	-10.3702
▁ventes	-10.3707
▁Ba	-10.3709
hé	-10.3712
▁dialogue	-10.3716
▁souvenir	-10.3717
og	-10.3717
▁notes	-10.3719
▁prénom	-10.3726
▁chant	-10.3738
he	-10.3743
▁nettoyage	-10.3745
▁courrier	-10.3745
▁patron	-10.3745
Ar	-10.3748
nage	-10.3749
▁conséquences	-10.375
▁œuvres	-10.3753
41	-10.3754
▁Histoire	-10.3766
▁étapes	-10.3771
▁diffusion	-10.3776
ration	-10.3778
▁Ro	-10.3783
isant	-10.3787
▁eaux	-10.3791
▁exactement	-10.3796
ments	-10.3796
▁voyages	-10.3797
▁allant	-10.3799
▁Ri	-10.3801
tine	-10.3802
AC	-10.3803
▁bus	-10.3803
ama	-10.3804
▁Côte	-10.381
▁coté	-10.3811
▁fixe	-10.3816
▁experts	-10.3816
▁Mme	-10.3816
▁conséquent	-10.3818
▁pont	-10.3822
▁potentiel	-10.3823
▁appelle	-10.3826
▁chasse	-10.3826
▁piste	-10.3835
can	-10.384
▁revenus	-10.3849
▁Santé	-10.3852
▁spécial	-10.3855
tur	-10.3863
forme	-10.3865
▁2019	-10.3867
investissement	-10.3868
obtenir	-10.3868
▁Communication	-10.3868
écriture	-10.3868
▁noire	-10.3876
éré	-10.3879
▁Pe	-10.3884
▁Jeux	-10.3887
▁échange	-10.3892
▁Parc	-10.3892
▁combien	-10.3893
▁amoureux	-10.3894
▁oublié	-10.3897
ki	-10.39
▁cor	-10.3904
one	-10.3905
▁ouvrir	-10.3907
▁feuilles	-10.3911
▁Picard	-10.3916
▁Blanc	-10.3918
▁noms	-10.3922
▁di	-10.3922
▁remplacer	-10.3926
▁pensez	-10.3928
▁Bois	-10.393
▁profondeur	-10.3932
▁ch	-10.3932
▁active	-10.3935
▁catégories	-10.3936
▁énorme	-10.394
don	-10.3945
▁longues	-10.3945
OS	-10.395
cre	-10.3954
34	-10.3956
▁Présentation	-10.3962
▁candidats	-10.3964
qué	-10.3967
TM	-10.3971
▁Lu	-10.3978
▁élections	-10.3982
▁neige	-10.3984
▁Mal	-10.3985
▁courage	-10.3986
▁atelier	-10.3997
▁(3)	-10.3998
mêmes	-10.4007
▁Port	-10.4011
▁permanent	-10.4014
▁lesquelles	-10.4015
▁silence	-10.4018
▁navigateur	-10.4018
▁phrase	-10.402
ach	-10.4024
▁regarde	-10.4025
▁fenêtre	-10.4026
▁Premier	-10.4026
▁sel	-10.4034
▁tarif	-10.4041
▁National	-10.4047
▁trouvent	-10.4051
▁Quelques	-10.4053
▁nécessité	-10.4069
▁pilote	-10.4072
gar	-10.4073
▁entretien	-10.408
her	-10.4081
▁Super	-10.4083
dit	-10.4083
ï	-10.4103
▁Ko	-10.4103
▁entend	-10.4105
▁(+	-10.4105
▁Inter	-10.4107
▁sciences	-10.411
▁courses	-10.4119
▁révolution	-10.4119
▁délais	-10.412
environ	-10.4121
▁facteurs	-10.4123
étranger	-10.4124
▁climat	-10.4125
▁Table	-10.4128
▁contenus	-10.4133
oo	-10.4142
▁Toutefois	-10.4144
aimerais	-10.4144
▁Mi	-10.4146
ju	-10.4148
tage	-10.4151
tri	-10.4154
▁Ex	-10.4155
52	-10.4159
▁Faites	-10.4176
tal	-10.4178
▁option	-10.4191
▁enjeux	-10.4191
▁lac	-10.4192
-19	-10.4194
av	-10.4198
08	-10.4199
▁échanges	-10.4201
▁fleur	-10.4204
▁Cuisine	-10.4207
▁Services	-10.4218
▁murs	-10.4222
▁appareils	-10.4234
pin	-10.4242
▁envoyé	-10.4251
▁discuter	-10.4254
▁attendant	-10.4255
▁conduit	-10.4259
▁ressort	-10.4264
44	-10.4265
▁commerciale	-10.4265
▁go	-10.427
▁ateliers	-10.4272
▁garage	-10.4273
▁tourner	-10.4273
▁philosophie	-10.4274
▁stade	-10.4275
appareil	-10.4276
▁locales	-10.4277
▁centaines	-10.4277
▁automatiquement	-10.428
▁jaune	-10.4282
tation	-10.4285
▁tourisme	-10.4289
artiste	-10.4293
▁Pré	-10.4294
mat	-10.4299
euses	-10.4299
▁machines	-10.4299
▁is	-10.4302
urgence	-10.4304
▁utilisateur	-10.4304
▁financier	-10.4309
▁ro	-10.4313
▁RE	-10.4314
▁financiers	-10.4316
▁kilomètres	-10.4318
▁titres	-10.432
▁statistiques	-10.4323
▁PS	-10.4323
▁pure	-10.4324
▁Aussi	-10.4327
▁décide	-10.4328
▁abus	-10.4329
▁idéale	-10.433
▁Attention	-10.4331
ture	-10.4333
▁collège	-10.4333
ines	-10.4343
▁chercheurs	-10.4347
▁considère	-10.4349
étaient	-10.435
▁efforts	-10.435
▁maintenir	-10.435
ek	-10.4352
▁Ad	-10.4353
▁découvre	-10.4362
CE	-10.4364
▁free	-10.4366
▁communiqué	-10.4367
▁actuel	-10.4371
▁chauffe	-10.4375
▁pot	-10.4378
électricité	-10.4381
▁bibliothèque	-10.4386
▁supplémentaire	-10.4386
▁amie	-10.4387
▁formations	-10.4387
▁Seigneur	-10.4388
▁destiné	-10.4388
▁w	-10.4396
▁renforcer	-10.4402
▁rédaction	-10.4402
▁hasard	-10.4402
nom	-10.4406
▁tres	-10.4407
32	-10.4409
br	-10.4412
ita	-10.4412
ières	-10.4413
▁chacune	-10.4416
▁tr	-10.442
▁opération	-10.4426
▁seraient	-10.4427
▁signature	-10.4428
humanité	-10.4429
intervention	-10.4434
▁hausse	-10.4435
ê	-10.4442
lant	-10.4444
▁drôle	-10.4448
1)	-10.446
▁ado	-10.4465
cal	-10.4468
▁inscrit	-10.4468
▁sé	-10.447
▁envers	-10.4472
▁Sélectionner	-10.4481
▁Bienvenue	-10.4486
IE	-10.4488
▁Couleur	-10.4489
▁visites	-10.449
▁histoires	-10.449
▁accompagner	-10.4492
▁servi	-10.4493
▁élément	-10.4494
▁leader	-10.4494
ay	-10.4496
▁vend	-10.4498
▁réalisée	-10.4499
▁argent	-10.4499
▁règle	-10.45
▁nommé	-10.4503
vol	-10.4505
bou	-10.4508
▁charges	-10.4508
▁fonctionnalités	-10.4509
▁Monique	-10.4511
▁lois	-10.4517
▁connexion	-10.4521
▁places	-10.4523
comme	-10.4523
▁Chat	-10.4524
▁pensées	-10.4525
▁Jo	-10.4525
▁agents	-10.4528
▁spéciale	-10.453
▁fa	-10.4535
▁extrêmement	-10.4537
identité	-10.4541
70	-10.4548
▁huit	-10.455
▁entrer	-10.4553
▁bac	-10.4557
▁bataille	-10.4561
▁attentes	-10.4565
▁montage	-10.457
▁célibataire	-10.4574
uc	-10.4581
▁marqué	-10.4582
▁cent	-10.4583
▁tension	-10.4588
▁lecteur	-10.4588
IC	-10.4589
jo	-10.4596
▁erreur	-10.4602
Al	-10.4604
▁dessous	-10.4606
nelle	-10.461
▁ouverture	-10.4611
bar	-10.4612
▁Bonne	-10.4612
▁cerveau	-10.4614
▁Soleil	-10.4614
▁conserver	-10.4616
▁missions	-10.4618
▁panne	-10.462
▁entendre	-10.4623
▁langues	-10.4623
▁rangement	-10.4629
▁gris	-10.4634
▁signé	-10.4634
48	-10.4641
atrice	-10.4643
▁Sac	-10.4646
▁meubles	-10.465
▁capacités	-10.4653
▁étoiles	-10.4653
▁Alain	-10.4664
▁tests	-10.4667
▁Gauthier	-10.4667
▁portail	-10.4668
▁côte	-10.467
▁posé	-10.4675
▁He	-10.4677
▁propriétaires	-10.4679
▁bains	-10.468
▁effectué	-10.4683
▁supplémentaires	-10.4684
▁parfum	-10.4686
AM	-10.4686
▁paysage	-10.4692
ire	-10.4693
▁ga	-10.4693
▁aventure	-10.4696
▁Carte	-10.4698
▁donnée	-10.4698
▁ordre	-10.4701
▁automatique	-10.4703
▁représentant	-10.4711
▁vise	-10.4711
▁bancaire	-10.4711
▁possibles	-10.4714
▁autrement	-10.4715
▁naturels	-10.4717
▁visant	-10.4719
▁fermeture	-10.4722
▁46	-10.473
▁dirigeants	-10.4731
EC	-10.4733
IT	-10.4733
issant	-10.4738
sol	-10.4739
▁remboursement	-10.4749
▁barre	-10.4754
▁légère	-10.4757
▁étage	-10.4761
ombre	-10.4763
▁principales	-10.4763
▁modification	-10.4766
▁décisions	-10.4768
▁37	-10.4771
▁sable	-10.4771
▁métal	-10.4773
59	-10.4776
TE	-10.4776
ste	-10.4781
▁Q	-10.4782
▁sorties	-10.4802
▁rénovation	-10.4802
ouest	-10.4802
▁pe	-10.4805
▁souvenirs	-10.4806
▁Taille	-10.4809
opération	-10.4811
▁disait	-10.4811
▁2018,	-10.4814
▁culturel	-10.4814
▁https	-10.4816
05	-10.4817
▁auquel	-10.4819
▁rond	-10.4825
▁russe	-10.483
▁importantes	-10.4833
▁cou	-10.4838
ç	-10.4839
Association	-10.484
▁rubrique	-10.485
ès	-10.485
▁utilisée	-10.4854
▁cliquant	-10.4857
▁dessins	-10.4857
▁plateau	-10.4861
▁électriques	-10.4864
▁musulmans	-10.4869
▁Rien	-10.4873
▁expériences	-10.4873
dis	-10.4882
▁Bas	-10.4882
▁Londres	-10.4884
▁repos	-10.4884
▁viande	-10.4885
-16	-10.4887
▁Martin	-10.4891
tif	-10.4894
65	-10.4895
▁accueillir	-10.4897
▁régional	-10.49
▁apparaît	-10.4905
49	-10.4906
▁revenu	-10.4906
uses	-10.4912
09	-10.4919
rin	-10.4919
lis	-10.492
43	-10.4928
▁humaines	-10.4929
▁déclaration	-10.4934
ouvrir	-10.4935
▁portable	-10.4937
uv	-10.4939
▁Twitter	-10.4939
▁globale	-10.4941
▁travaillé	-10.4944
▁importe	-10.4945
▁formule	-10.4946
▁correspondant	-10.4957
ven	-10.4961
33	-10.4961
rée	-10.4963
▁entière	-10.4965
▁Beau	-10.4968
▁accueille	-10.4968
On	-10.497
▁faudrait	-10.497
▁secteurs	-10.4979
▁Ru	-10.4982
▁récit	-10.4983
cle	-10.4988
▁..	-10.4991
▁réussir	-10.4993
▁06	-10.4993
▁tchat	-10.4993
42	-10.4994
▁Plusieurs	-10.4995
exemple	-10.5006
▁arts	-10.5007
▁auront	-10.5009
▁préfère	-10.5013
ong	-10.5015
▁reconnu	-10.5018
▁massage	-10.502
▁central	-10.5021
arrière	-10.5022
▁Description	-10.5023
▁Lo	-10.5027
Institut	-10.5034
▁prête	-10.5035
▁installer	-10.5042
▁raconte	-10.5046
▁parlé	-10.5049
▁soyez	-10.505
rat	-10.5055
tour	-10.5061
Co	-10.5065
▁consommateurs	-10.5069
▁maîtrise	-10.5069
▁midi	-10.5076
▁cancer	-10.5078
oir	-10.5082
▁panier	-10.5083
▁supprimer	-10.5086
▁communiquer	-10.5091
aventure	-10.5092
▁cadeaux	-10.5092
▁Allemagne	-10.5093
ano	-10.5094
▁jugement	-10.5096
our	-10.5099
▁accepter	-10.51
erie	-10.5103
▁chapitre	-10.5104
▁nu	-10.5104
▁solide	-10.5105
▁littérature	-10.5106
▁bref	-10.5107
▁accueil	-10.5109
▁44	-10.5114
alimentation	-10.5119
▁Lorsqu	-10.5121
▁enseignants	-10.5123
▁proposés	-10.5129
▁Ici	-10.5133
ster	-10.5137
▁nucléaire	-10.5137
▁réelle	-10.5137
▁considéré	-10.5138
vit	-10.5138
▁importants	-10.5139
▁françaises	-10.5143
▁Sinon	-10.5145
émission	-10.5147
aujourd	-10.5148
all	-10.5148
▁400	-10.5153
▁relève	-10.5154
▁sérieuse	-10.5157
site	-10.5161
▁devraient	-10.5163
▁coton	-10.5166
rage	-10.5168
vel	-10.5173
▁brut	-10.5173
▁dépenses	-10.5174
▁épisode	-10.5177
▁suisse	-10.519
▁compétition	-10.519
▁confidentialité	-10.5191
▁prévention	-10.5191
▁bruit	-10.5192
▁définir	-10.5196
▁dommage	-10.5197
94	-10.5202
000	-10.5208
▁préalable	-10.5211
▁65	-10.5211
▁tourne	-10.5212
▁quitter	-10.5212
lier	-10.5216
&#39;	-10.5219
▁couche	-10.5221
▁diversité	-10.5222
▁Celui	-10.5222
▁Ah	-10.5223
▁moto	-10.5227
édition	-10.5232
ule	-10.5238
attaque	-10.5242
▁Maintenant	-10.5247
▁malheureusement	-10.5248
▁copie	-10.5252
▁Salon	-10.5261
▁rêves	-10.5265
▁Mai	-10.5265
▁commandes	-10.5268
▁donnent	-10.5268
▁IV	-10.5268
▁cherchez	-10.5272
▁restaurants	-10.5272
▁Mou	-10.5275
▁familiale	-10.5275
▁déterminer	-10.5275
▁lycée	-10.5276
▁tribunal	-10.5276
▁constitué	-10.5276
▁Guerre	-10.5277
▁transformation	-10.5277
cho	-10.5281
ya	-10.5282
rique	-10.5282
ET	-10.5285
▁Bleu	-10.5286
isse	-10.5287
▁sèche	-10.5289
▁Place	-10.5289
asse	-10.529
université	-10.5292
▁International	-10.5292
▁engagement	-10.53
▁parking	-10.5301
▁CD	-10.5302
pt	-10.5309
▁football	-10.5309
▁42	-10.5311
cul	-10.5311
▁mener	-10.5313
apprentissage	-10.532
-15	-10.5321
55	-10.5322
▁prenant	-10.5324
▁nécessite	-10.5325
▁front	-10.533
▁possibilités	-10.5333
▁consacré	-10.5333
▁valable	-10.5336
/5	-10.5341
▁équipée	-10.5342
▁sorti	-10.5354
▁disent	-10.5359
▁gare	-10.536
▁traduction	-10.5362
▁coordonnées	-10.5365
▁Thomas	-10.5366
den	-10.5367
▁béton	-10.5368
▁réduit	-10.5372
▁rappeler	-10.5372
▁02	-10.5377
▁puissant	-10.5382
nce	-10.5385
▁principes	-10.5387
▁1731)	-10.5391
quet	-10.5403
▁pierres	-10.5407
▁rares	-10.541
▁amoureuse	-10.5412
▁catalogue	-10.542
▁Bocq	-10.542
▁kg	-10.5423
avantage	-10.5423
▁complément	-10.5424
▁précision	-10.5425
▁camp	-10.5425
▁magazine	-10.5428
▁candidat	-10.5431
AD	-10.5431
▁05	-10.5433
▁Vie	-10.5433
▁instant	-10.5433
▁offrent	-10.5433
cri	-10.5434
▁paris	-10.5437
ny	-10.5438
nie	-10.5439
▁fans	-10.5442
lou	-10.5446
▁soutenir	-10.5449
▁organisations	-10.5453
▁reprise	-10.5458
▁proposent	-10.5477
▁conseille	-10.5478
▁participé	-10.548
▁arbre	-10.5481
ces	-10.5481
▁boite	-10.5485
▁consultation	-10.5486
▁organismes	-10.5489
▁55	-10.549
▁vertu	-10.5491
Pierre	-10.5495
ancienne	-10.5497
▁Moyen	-10.5507
▁batterie	-10.5513
lon	-10.5513
dy	-10.5513
amp	-10.5515
▁installé	-10.5515
▁offert	-10.5515
▁SA	-10.5516
▁Russie	-10.5516
tiques	-10.5516
ral	-10.5519
2.	-10.5521
▁culturelle	-10.5522
ado	-10.5523
▁pousse	-10.5524
▁sensation	-10.5526
▁CA	-10.5527
▁terminé	-10.5529
exception	-10.5532
▁pleinement	-10.5532
▁restauration	-10.5536
De	-10.554
▁John	-10.554
▁Li	-10.5541
▁victime	-10.5542
▁organisée	-10.5545
▁chinois	-10.5552
teur	-10.5555
af	-10.5555
▁employés	-10.5558
ification	-10.5559
▁amateurs	-10.5569
▁soeur	-10.5571
plus	-10.5572
▁spécialement	-10.5575
aff	-10.5576
▁structures	-10.5577
▁montré	-10.5577
▁intellectuelle	-10.5577
▁quête	-10.5579
▁originale	-10.5581
▁alimentaire	-10.5584
77	-10.5589
▁arrêté	-10.5589
▁Bal	-10.5589
ome	-10.5591
▁composée	-10.5593
▁content	-10.5593
yn	-10.5598
▁remplacement	-10.5599
ru	-10.56
▁travailleurs	-10.5602
▁toile	-10.5605
▁émotions	-10.5606
acte	-10.5606
nier	-10.5616
fe	-10.5617
▁profond	-10.5617
▁souhaitent	-10.5623
▁pensé	-10.5628
ight	-10.5628
▁champs	-10.5629
ouille	-10.5635
▁aspects	-10.5638
▁remis	-10.5639
▁payant	-10.5639
▁flux	-10.5644
ell	-10.5647
87	-10.5648
bon	-10.5649
▁accompagné	-10.5653
ial	-10.5655
▁sommet	-10.5657
▁feuille	-10.5659
▁commission	-10.5663
▁journaliste	-10.5664
IL	-10.5666
▁blancs	-10.5666
▁motif	-10.5666
”.	-10.567
ec	-10.5672
85	-10.5676
▁certificat	-10.5678
oise	-10.5679
▁écoute	-10.5681
▁chansons	-10.5682
▁concurrence	-10.5683
▁ver	-10.5685
dans	-10.5688
▁64	-10.569
st	-10.5692
▁Française	-10.5692
▁âme	-10.5695
▁sex	-10.5696
▁placé	-10.5697
▁toit	-10.5699
▁rentrée	-10.5705
▁logements	-10.5706
96	-10.5714
▁vallée	-10.5714
▁nourriture	-10.5714
▁intervention	-10.5714
▁chefs	-10.5721
▁convention	-10.5721
▁prévues	-10.5722
▁galerie	-10.5723
aurait	-10.5724
▁dimension	-10.5729
gen	-10.5731
opposition	-10.5734
ting	-10.5736
ction	-10.5737
▁lot	-10.5739
▁Bretagne	-10.5739
ung	-10.5742
int	-10.5742
▁1000	-10.5743
▁séances	-10.5743
▁cycle	-10.5745
▁Do	-10.5755
▁solaire	-10.5757
95	-10.5757
▁sommeil	-10.5761
animation	-10.5763
efficacité	-10.5764
info	-10.577
▁2003	-10.577
▁essayé	-10.5773
▁néanmoins	-10.5773
▁courte	-10.5776
▁biais	-10.5777
02	-10.5781
▁Aux	-10.5781
▁Ã	-10.5782
▁interdit	-10.5783
Un	-10.5791
Si	-10.5792
▁bâtiments	-10.5794
▁Fa	-10.5795
zi	-10.5796
inter	-10.5798
▁collections	-10.5808
ini	-10.5812
▁médicaments	-10.5813
AR	-10.5813
▁loisirs	-10.5818
▁liquide	-10.5818
▁toucher	-10.5821
▁Parti	-10.5826
▁bases	-10.5826
▁allemand	-10.5827
▁villa	-10.5831
▁fuite	-10.5833
▁poursuivre	-10.5833
▁certes	-10.5833
▁Index	-10.5835
ori	-10.5838
▁douceur	-10.5841
ani	-10.5845
nc	-10.5848
▁Robe	-10.5849
▁Musée	-10.5851
▁exceptionnel	-10.5858
▁Bu	-10.5862
▁Ja	-10.5862
▁contenant	-10.5864
▁reproduction	-10.5864
▁tables	-10.5866
▁apprécié	-10.5867
▁43	-10.587
▁extraordinaire	-10.5871
ost	-10.5872
▁paroles	-10.5876
inc	-10.5876
▁serveur	-10.5877
▁installations	-10.5879
▁logo	-10.5879
old	-10.5883
▁épouse	-10.5884
▁actif	-10.5885
cy	-10.5887
améliorer	-10.5888
ps	-10.589
▁accident	-10.5892
anne	-10.5893
▁riches	-10.5898
▁endroits	-10.5899
▁degré	-10.5901
▁All	-10.5904
▁venez	-10.5907
▁quotidienne	-10.5908
ian	-10.5911
▁décrit	-10.5915
enquête	-10.5916
▁dents	-10.592
▁secrétaire	-10.5924
37	-10.5925
matique	-10.5925
fer	-10.5925
▁Suite	-10.5925
cré	-10.5926
▁dure	-10.5926
▁sauver	-10.5929
▁Nantes	-10.5929
gr	-10.5937
CC	-10.594
▁etre	-10.594
▁bo	-10.594
▁Mac	-10.5942
ret	-10.5944
▁organise	-10.5948
▁ressemble	-10.5948
isée	-10.5953
▁maintenance	-10.5955
▁1730)	-10.5955
▁créations	-10.5955
▁animal	-10.5957
▁produire	-10.5958
▁Festival	-10.5958
51	-10.5963
▁2017,	-10.5966
▁mousse	-10.5972
▁rues	-10.5973
enne	-10.5974
▁(4)	-10.5975
ham	-10.5976
▁fi	-10.5982
▁cérémonie	-10.5985
▁immense	-10.599
êtes	-10.599
▁handicap	-10.5991
▁Région	-10.5994
▁discussion	-10.6001
▁cha	-10.6007
ib	-10.601
tr	-10.6011
▁solidarité	-10.6016
▁fêtes	-10.6019
we	-10.6019
▁religieux	-10.6022
ros	-10.6023
Ouest	-10.6023
▁refus	-10.6028
▁médecins	-10.6034
▁terres	-10.6034
▁standard	-10.6037
▁médecine	-10.6038
▁spécialisé	-10.6039
▁utilisées	-10.6039
▁circulation	-10.6047
▁cougar	-10.6049
ayant	-10.6049
cent	-10.6052
▁Loire	-10.6052
▁froide	-10.6058
gan	-10.6058
▁Hu	-10.6059
ente	-10.6059
▁tâche	-10.6064
jour	-10.6068
▁évolution	-10.6069
▁situe	-10.6073
▁Photo	-10.6076
eaux	-10.6079
▁basé	-10.608
▁donnant	-10.6082
▁quartiers	-10.6083
▁Marc	-10.6086
▁traditionnelle	-10.6088
▁collectivités	-10.6088
rais	-10.6089
▁stockage	-10.6094
km	-10.6095
▁rivière	-10.6095
▁impression	-10.6096
56	-10.6098
intégration	-10.6102
▁procès	-10.6108
▁décret	-10.6109
lage	-10.611
AN	-10.6111
ley	-10.6111
▁rappel	-10.6113
▁rang	-10.6113
▁Su	-10.6114
▁nez	-10.6116
▁!)	-10.6117
▁serre	-10.6124
▁ouvre	-10.6125
▁adulte	-10.6134
▁développé	-10.6135
tout	-10.6136
▁augmenter	-10.6137
▁reconnaissance	-10.6139
▁retourner	-10.614
atif	-10.6146
▁expliquer	-10.6147
ort	-10.6148
▁Direction	-10.6158
▁connue	-10.6159
▁collective	-10.6161
atelier	-10.617
ATION	-10.617
▁étrangers	-10.617
rn	-10.6172
▁Royaume	-10.6175
iel	-10.6176
▁Là	-10.6177
lit	-10.6178
▁sou	-10.6178
▁coûts	-10.618
▁Te	-10.618
▁CE	-10.6182
▁cri	-10.6182
▁héros	-10.6189
▁49	-10.6192
ça	-10.6192
innovation	-10.6196
▁contemporain	-10.6198
▁internationales	-10.6198
nement	-10.6198
▁calendrier	-10.6202
▁Beaucoup	-10.6202
▁exceptionnelle	-10.6203
▁Trouver	-10.6203
▁désert	-10.6204
▁Christian	-10.6207
▁1999	-10.6212
▁magasins	-10.6217
▁59	-10.6219
▁Rose	-10.6219
▁espèces	-10.622
▁2016,	-10.6224
▁fasse	-10.6226
quin	-10.6227
dou	-10.6227
▁modalités	-10.6233
▁favoriser	-10.6237
▁quatrième	-10.6238
▁Syrie	-10.6239
▁sec	-10.624
▁minute	-10.6241
▁Maurice	-10.6242
▁Black	-10.6242
ange	-10.6243
▁look	-10.6246
▁menace	-10.6247
46	-10.6247
Orient	-10.6249
vie	-10.6249
91	-10.625
ray	-10.6252
nés	-10.6252
▁médicament	-10.6255
▁paraît	-10.626
ouvrage	-10.6261
▁avance	-10.6261
▁billet	-10.6261
▁Femmes	-10.6262
▁configuration	-10.6265
▁personnels	-10.6271
▁recommande	-10.6274
▁Lui	-10.6279
▁artiste	-10.6281
▁z	-10.6284
abilité	-10.6286
temps	-10.6287
▁phénomène	-10.629
OL	-10.6291
▁siècles	-10.6293
▁rémunération	-10.6296
▁suffisamment	-10.6296
▁concentration	-10.6297
rac	-10.6303
▁limites	-10.6303
▁Ho	-10.6304
86	-10.6305
▁pouvoirs	-10.6306
tan	-10.6312
▁tra	-10.6312
▁Del	-10.6314
▁lèvres	-10.6317
▁Nom	-10.6319
▁primaire	-10.6319
▁profils	-10.6322
66	-10.6326
▁doigts	-10.6328
▁Ci	-10.6328
▁ballon	-10.633
▁pé	-10.633
▁VI	-10.633
▁ba	-10.6338
▁Guide	-10.634
▁adaptée	-10.6343
▁rentrer	-10.6345
ten	-10.6345
▁mairie	-10.6347
▁mo	-10.6351
▁notion	-10.6354
▁paire	-10.6357
▁étrange	-10.6358
ling	-10.6359
▁Simon	-10.6359
▁transformer	-10.636
▁vieille	-10.6362
▁Gra	-10.6362
wi	-10.6363
▁jus	-10.6363
▁Politique	-10.6369
▁signes	-10.6369
▁th	-10.6371
▁3.	-10.6372
▁connecter	-10.6373
▁cache	-10.6374
vant	-10.6375
▁250	-10.6376
▁imp	-10.638
▁lié	-10.6383
▁plaque	-10.6384
ures	-10.6386
▁rock	-10.6387
▁collecte	-10.6387
▁coucher	-10.6388
▁patient	-10.6388
▁ad	-10.6388
▁Première	-10.6389
▁Tra	-10.6391
▁sympathique	-10.6392
▁intégré	-10.6394
▁Veuillez	-10.6395
▁scolaires	-10.6401
gie	-10.6409
AT	-10.641
▁savent	-10.6411
▁venue	-10.6413
gue	-10.6415
▁conséquence	-10.6416
▁mandat	-10.6418
▁morts	-10.642
▁LES	-10.6422
▁majeur	-10.6425
▁mettant	-10.6426
Ma	-10.6428
▁mécanique	-10.6429
ep	-10.6433
SA	-10.6435
▁prostituée	-10.644
▁championnat	-10.6449
organisme	-10.6453
bert	-10.6453
▁streaming	-10.6455
▁montée	-10.6456
erreur	-10.6457
élection	-10.6458
▁médical	-10.6459
▁colère	-10.6459
▁savait	-10.646
▁essentiellement	-10.6462
▁Loi	-10.6463
Au	-10.6464
▁audio	-10.6465
▁gagné	-10.6466
▁réserver	-10.6468
▁lancement	-10.647
▁chiens	-10.6474
▁::	-10.6476
▁hôtels	-10.6479
my	-10.6481
▁passée	-10.6482
▁diplôme	-10.6482
▁Auto	-10.6484
▁Yves	-10.6484
acheter	-10.6487
▁Guillaume	-10.6488
▁présidentielle	-10.6491
bé	-10.6493
▁Ve	-10.6494
▁Nationale	-10.65
cl	-10.6505
▁réservé	-10.6509
▁élus	-10.6513
▁financières	-10.6519
▁progrès	-10.652
▁clientèle	-10.6521
▁Toulouse	-10.6523
57	-10.6524
▁jardins	-10.6526
existe	-10.6529
ât	-10.6531
▁Van	-10.6536
▁gratuits	-10.6539
47	-10.6539
▁Top	-10.6544
▁quasi	-10.6544
°1	-10.6545
▁limiter	-10.6547
▁For	-10.6551
▁mettent	-10.6557
▁guitare	-10.6559
▁soucis	-10.656
▁Georges	-10.6563
▁Bain	-10.6567
▁coopération	-10.6586
▁Sch	-10.6586
CH	-10.659
▁affiche	-10.659
▁acquis	-10.6594
98	-10.6597
▁utiles	-10.66
▁Bel	-10.6602
issement	-10.6603
▁recommandé	-10.6604
mère	-10.6607
approche	-10.6608
han	-10.661
▁dizaine	-10.6614
Église	-10.6616
▁Aide	-10.6616
▁offrant	-10.6617
nd	-10.662
▁apprend	-10.6624
▁représentants	-10.6629
ug	-10.6631
▁tâches	-10.6632
▁session	-10.6632
▁apprentissage	-10.6632
▁ajouté	-10.6633
pri	-10.6634
▁réalise	-10.6641
▁tome	-10.6642
ries	-10.6643
▁augmentation	-10.6645
▁État	-10.6646
nal	-10.6647
▁Date	-10.6649
▁vendeur	-10.6649
58	-10.6655
▁Gestion	-10.6656
bra	-10.6656
▁territoires	-10.6661
ssant	-10.6661
▁indépendant	-10.6669
▁représentation	-10.6681
energie	-10.6682
▁richesse	-10.6683
▁défendre	-10.6684
▁institutions	-10.6686
▁Chez	-10.6693
▁Homme	-10.6696
oire	-10.6699
▁Cher	-10.67
▁Wi	-10.67
ame	-10.67
▁....	-10.6707
▁My	-10.6708
échelle	-10.6715
autorisation	-10.6715
Numérisation	-10.6716
▁Trump	-10.6716
▁(89)	-10.6716
▁compliqué	-10.6717
▁veuillez	-10.6717
▁morceaux	-10.6718
▁furent	-10.6718
endroit	-10.6719
éviter	-10.6719
off	-10.672
▁diagnostic	-10.6724
▁adaptés	-10.6726
engage	-10.6731
▁Fort	-10.6739
▁Tri	-10.6741
▁cheval	-10.6742
▁plats	-10.6743
▁pâte	-10.6748
▁module	-10.6748
▁résoudre	-10.6749
▁recrutement	-10.6751
▁ra	-10.676
iné	-10.6761
62	-10.6762
▁nul	-10.6766
observ	-10.6767
wa	-10.677
3)	-10.6777
oui	-10.678
▁cuisson	-10.6782
▁Formation	-10.6783
▁transition	-10.6783
68	-10.6784
har	-10.6786
▁Mars	-10.6788
▁décider	-10.6789
▁tir	-10.6804
▁former	-10.6805
▁pan	-10.6809
▁impact	-10.6814
▁équipement	-10.6823
▁tournée	-10.6832
▁Henri	-10.6833
mis	-10.6834
▁Association	-10.6837
▁civil	-10.6844
isser	-10.6846
▁remplir	-10.6846
hy	-10.6847
▁transmission	-10.6849
▁aimer	-10.6851
▁répondu	-10.6856
▁comporte	-10.6856
▁Venez	-10.6857
▁Mor	-10.6857
utilise	-10.6858
Bas	-10.6866
éd	-10.6875
▁FR	-10.6882
▁talent	-10.6885
▁Encore	-10.6886
bu	-10.6889
▁profonde	-10.6891
▁spécialisée	-10.6896
▁partis	-10.6899
▁associé	-10.6901
▁ménage	-10.6907
▁Sciences	-10.6909
▁pic	-10.6911
▁Général	-10.6912
▁Seine	-10.6916
▁récupérer	-10.6917
ras	-10.6917
▁bloc	-10.6917
▁conflit	-10.6918
▁devons	-10.6918
▁Note	-10.6923
▁Haut	-10.6925
▁62	-10.6928
▁2015,	-10.6929
▁modes	-10.693
▁erreurs	-10.6933
▁arrêt	-10.6935
▁fine	-10.6936
▁participe	-10.695
▁venait	-10.6951
hôpital	-10.6951
▁panneaux	-10.6954
oubliez	-10.6954
PE	-10.6961
za	-10.6963
69	-10.6964
▁équipé	-10.6965
▁transports	-10.6967
▁lecteurs	-10.6967
part	-10.6972
▁populations	-10.6973
affiche	-10.6975
lia	-10.6976
▁hyper	-10.6979
▁terminer	-10.6982
▁salope	-10.6983
▁massif	-10.6983
▁expositions	-10.6983
▁record	-10.6984
▁éventuellement	-10.6986
▁résolution	-10.6988
▁précisément	-10.6988
▁Sport	-10.6988
RI	-10.699
▁SE	-10.6992
ect	-10.6996
▁croix	-10.6997
▁voudrais	-10.7003
▁réalisés	-10.701
rés	-10.7011
▁traduit	-10.7017
▁comprenant	-10.7017
▁compléter	-10.7019
impact	-10.7019
▁conducteur	-10.7022
▁sensible	-10.7022
▁vivent	-10.7022
▁officielle	-10.7024
▁black	-10.7024
ola	-10.7027
ock	-10.7029
▁naturellement	-10.7032
nique	-10.7036
▁economie	-10.7038
▁bal	-10.7041
▁Red	-10.7046
▁raisonnable	-10.7051
▁météo	-10.7051
▁dépannage	-10.7051
▁exclusivement	-10.7055
▁inclus	-10.7055
▁perspective	-10.7056
▁troubles	-10.7058
▁score	-10.7062
▁char	-10.7063
tée	-10.7063
▁acte	-10.7064
sept	-10.7065
▁acteur	-10.7067
enfants	-10.707
lib	-10.7074
▁journalistes	-10.7076
▁semi	-10.7076
▁Meilleur	-10.7079
▁créée	-10.708
▁avais	-10.7081
▁paramètres	-10.7082
▁pre	-10.7083
exécution	-10.7088
▁Annonce	-10.7091
▁pistes	-10.7094
tez	-10.7095
▁ben	-10.7097
▁difficiles	-10.7097
▁Pen	-10.7098
ari	-10.7112
nais	-10.7115
▁estime	-10.7118
▁démocratique	-10.7119
▁satisfaction	-10.7119
▁proposées	-10.712
▁morale	-10.712
▁Communauté	-10.7122
▁colonne	-10.7127
▁dédiée	-10.7134
▁2001	-10.7137
▁semblent	-10.7137
▁naturelles	-10.7138
▁inscrits	-10.714
▁militaires	-10.714
▁BD	-10.7142
▁maintien	-10.7146
▁propositions	-10.7148
▁tranquille	-10.7149
▁coquine	-10.715
▁poésie	-10.7153
▁vice	-10.7154
67	-10.7157
acquisition	-10.7157
▁correctement	-10.7158
▁recul	-10.7161
▁déplacement	-10.7165
tent	-10.7166
89	-10.7167
▁PDF	-10.7168
!)	-10.7168
$	-10.7171
▁mention	-10.7171
▁dossiers	-10.7173
▁Luc	-10.7173
sson	-10.7175
▁Université	-10.7175
▁cal	-10.7175
▁disant	-10.7175
▁jambes	-10.7176
▁classes	-10.7178
ov	-10.7181
▁lutter	-10.7181
▁directe	-10.7183
UL	-10.7183
▁dép	-10.7185
▁trou	-10.7186
▁Père	-10.7186
▁japonais	-10.719
lor	-10.7192
Histoire	-10.7192
ifié	-10.7193
▁classiques	-10.7193
«	-10.7194
anglais	-10.7195
3%	-10.7202
▁judiciaire	-10.7202
Ce	-10.7204
tier	-10.7205
DE	-10.7209
▁Rome	-10.7214
-3	-10.7216
▁qualités	-10.7216
UR	-10.7221
▁Luxembourg	-10.7222
▁européens	-10.7224
Vous	-10.7228
▁Lille	-10.7228
▁CV	-10.7228
Nous	-10.7229
ète	-10.7229
▁volant	-10.7231
duc	-10.7234
aura	-10.7237
▁séries	-10.7239
▁Pr	-10.724
▁représentent	-10.7242
unité	-10.7254
▁auraient	-10.7256
▁énormément	-10.7257
▁miroir	-10.7257
emp	-10.7261
▁restant	-10.7261
▁pause	-10.7261
▁émissions	-10.7263
ria	-10.7263
▁accepté	-10.7266
▁quitte	-10.7271
▁essentiel	-10.7275
5%	-10.7277
rit	-10.7278
▁global	-10.7278
▁comp	-10.7281
▁Italie	-10.7283
chant	-10.7283
83	-10.7284
▁140	-10.7285
▁visible	-10.7287
▁Thèmes	-10.7288
▁beurre	-10.7294
▁Château	-10.7302
▁infos	-10.7306
▁normale	-10.7308
▁malade	-10.731
▁annuel	-10.7315
▁manches	-10.7317
ME	-10.7318
▁Sol	-10.7319
mai	-10.732
▁disparu	-10.732
▁Tags	-10.7326
▁compréhension	-10.7327
▁poudre	-10.7328
▁plombier	-10.7328
▁Christophe	-10.7332
▁tend	-10.7332
▁connaitre	-10.7332
initiative	-10.7333
sta	-10.7334
▁contribution	-10.7339
▁réaction	-10.7341
▁Home	-10.7344
▁libres	-10.7349
iff	-10.7352
64	-10.7354
▁04	-10.7356
▁(6	-10.7357
oli	-10.7359
▁dates	-10.7362
▁résumé	-10.7366
▁saisir	-10.7367
▁2014,	-10.737
▁bureaux	-10.7373
▁hommage	-10.7373
▁modifications	-10.7374
▁prestation	-10.7374
▁relatif	-10.7375
▁relativement	-10.7375
ave	-10.7377
▁excellente	-10.7385
▁triste	-10.7385
esse	-10.7386
▁éditions	-10.7389
▁alimentaires	-10.7389
63	-10.7394
▁plages	-10.7398
▁réglementation	-10.7398
tis	-10.74
CO	-10.74
▁obligations	-10.7401
Jean	-10.7403
oeuvre	-10.7404
▁contente	-10.7404
▁frères	-10.7411
▁poursuit	-10.7413
▁Polar	-10.7415
▁spécialistes	-10.7416
▁faits	-10.7417
76	-10.7418
▁mange	-10.742
▁dimensions	-10.7421
▁manifestations	-10.7421
.....	-10.7425
▁références	-10.7426
juil	-10.7427
▁Col	-10.7429
▁bu	-10.7432
▁reçoit	-10.7433
▁Nouveau	-10.7437
agriculture	-10.7439
élé	-10.7446
bel	-10.7448
92	-10.7451
▁HD	-10.7454
OU	-10.7458
met	-10.746
);	-10.7462
▁privés	-10.7465
1,	-10.7465
53	-10.7467
▁légales	-10.7468
▁expliqué	-10.7468
▁Réunion	-10.7469
71	-10.747
impôt	-10.7475
offrir	-10.7476
▁reprises	-10.7477
▁théorie	-10.7483
▁expert	-10.7484
▁colle	-10.7489
▁motifs	-10.7494
▁retrait	-10.7502
▁canapé	-10.7504
▁division	-10.7504
ches	-10.7504
▁tapis	-10.7504
▁horaires	-10.7504
▁contribue	-10.7504
78	-10.7505
▁Européenne	-10.7505
OM	-10.7506
▁41	-10.7507
▁deviennent	-10.7507
▁Daniel	-10.7508
72	-10.7509
▁revoir	-10.7511
Italie	-10.7512
▁Trois	-10.7512
GE	-10.7519
▁Fonds	-10.7519
54	-10.752
▁res	-10.7523
ada	-10.7525
berg	-10.7537
vers	-10.7539
▁courriel	-10.754
▁conservation	-10.754
▁Char	-10.7544
▁prime	-10.7544
▁intense	-10.7546
▁unités	-10.7547
▁invité	-10.7548
raient	-10.7548
▁Hi	-10.755
rer	-10.7554
▁chrétiens	-10.7557
avaient	-10.7562
éc	-10.7563
▁chatte	-10.7567
▁Banque	-10.7569
▁chimie	-10.7573
ble	-10.7575
▁Madame	-10.7575
ren	-10.7576
ifi	-10.7577
▁Dis	-10.7578
▁destinée	-10.7579
▁kit	-10.758
▁Gr	-10.7582
▁destin	-10.7583
architecture	-10.7584
▁Har	-10.7588
abri	-10.7591
▁repris	-10.7592
▁contactez	-10.7592
xi	-10.7592
▁mou	-10.7593
▁queue	-10.7594
▁Petite	-10.7595
bus	-10.7599
▁laissez	-10.7599
▁85	-10.7601
▁testé	-10.7601
▁inspiré	-10.7606
▁Th	-10.7607
bour	-10.761
▁man	-10.761
▁Disponible	-10.7611
▁trafic	-10.7611
▁arabe	-10.7612
▁issus	-10.7617
▁fréquence	-10.7618
aéroport	-10.762
avril	-10.7625
mor	-10.7626
études	-10.7627
▁compétence	-10.7629
engagement	-10.763
▁physiques	-10.7633
▁vins	-10.7633
▁puissent	-10.7639
▁développe	-10.764
hu	-10.7645
▁palais	-10.7649
▁tombé	-10.765
▁sports	-10.7651
▁photographie	-10.7651
▁programmation	-10.7652
▁collègues	-10.7655
alcool	-10.7656
inscrire	-10.7656
amélioration	-10.7656
▁évident	-10.766
▁composition	-10.7666
ind	-10.7667
ati	-10.7669
applique	-10.7672
IA	-10.7673
▁semblait	-10.7685
▁Bri	-10.7685
▁mourir	-10.7686
ng	-10.7693
log	-10.7694
▁régionale	-10.7696
PA	-10.7702
▁quart	-10.7703
▁payé	-10.7704
ert	-10.7706
▁royaume	-10.772
▁serrurier	-10.772
▁Appartement	-10.772
▁économies	-10.7723
▁procéder	-10.7724
▁garçons	-10.7727
▁173	-10.7727
▁don	-10.7729
▁ajoute	-10.7733
yl	-10.7735
▁féminin	-10.7735
▁bienvenue	-10.7736
▁grille	-10.7736
Pour	-10.7737
bl	-10.7739
▁Bra	-10.774
▁Canal	-10.7743
▁catholique	-10.7745
▁reprend	-10.7746
▁claire	-10.7749
▁écouter	-10.7749
▁documentaire	-10.7752
▁souhait	-10.7752
ric	-10.7756
▁rupture	-10.7756
▁vocation	-10.7757
▁Développement	-10.7757
▁Lunettes	-10.7757
▁Programme	-10.7757
▁louer	-10.7759
▁déchets	-10.776
▁prévoir	-10.7761
ENT	-10.7762
téri	-10.7764
▁reconnaître	-10.7765
▁fourni	-10.7765
▁prêts	-10.7766
aménagement	-10.7767
Amérique	-10.7767
appartement	-10.7767
#	-10.777
▁thèmes	-10.7773
▁Fer	-10.7774
▁aspect	-10.7776
▁chantier	-10.7779
▁Fi	-10.778
▁120	-10.7781
arrêter	-10.7785
▁associés	-10.779
▁déplacer	-10.7791
▁termine	-10.7791
▁conversation	-10.7793
▁poursuivant	-10.7793
▁satisfaire	-10.7793
▁prévenir	-10.7794
▁dangereux	-10.7795
▁traité	-10.7803
▁fruit	-10.7807
él	-10.7807
én	-10.7808
▁09	-10.7809
▁Tom	-10.781
▁Ti	-10.7817
▁trouvez	-10.782
agir	-10.7823
100	-10.7824
▁sœur	-10.7825
▁Mode	-10.7827
▁(4	-10.7828
▁médicale	-10.7832
rai	-10.7837
intéresse	-10.7842
▁traces	-10.7843
▁Max	-10.7844
▁vi	-10.7849
▁paysages	-10.785
▁critiques	-10.7852
▁belge	-10.7854
dent	-10.7855
▁mets	-10.786
▁Sé	-10.7864
▁Profitez	-10.7867
▁photographe	-10.7868
▁magie	-10.7876
▁récente	-10.7883
▁publier	-10.7884
▁limité	-10.7885
▁constater	-10.7885
cat	-10.7887
installer	-10.7889
jou	-10.7889
▁province	-10.789
▁satisfait	-10.7894
▁chi	-10.79
▁américains	-10.7901
▁utilisez	-10.7901
▁na	-10.7903
▁comparaison	-10.7905
MA	-10.7905
▁italien	-10.7906
▁psychologique	-10.7908
▁canton	-10.7913
étend	-10.7914
▁Chi	-10.7916
automne	-10.7916
▁accompagne	-10.7918
Plus	-10.7918
▁(3	-10.7919
nis	-10.7921
▁venus	-10.7924
▁autorisation	-10.7927
IP	-10.7927
▁Conditions	-10.793
illa	-10.794
▁contrôler	-10.7942
▁conseillé	-10.7942
▁Directeur	-10.7943
▁connaissent	-10.7943
SE	-10.7945
▁Retour	-10.7947
▁52	-10.7951
▁Création	-10.7953
assistance	-10.7954
▁tuer	-10.7956
mment	-10.7966
▁laboratoire	-10.7966
▁numériques	-10.7966
▁Can	-10.7966
▁bite	-10.7973
adapter	-10.7974
position	-10.7976
ième	-10.798
▁battre	-10.7981
▁seins	-10.7981
▁Gratuit	-10.7983
▁établi	-10.7984
▁finit	-10.7985
▁Android	-10.7985
▁personnalisé	-10.7985
▁enfance	-10.7985
tar	-10.7986
▁dedans	-10.7989
Eglise	-10.7991
▁quels	-10.7993
ef	-10.7993
▁différente	-10.7996
▁banques	-10.7997
▁actifs	-10.8
▁randonnée	-10.8004
▁studio	-10.8004
▁placer	-10.8006
▁britannique	-10.8007
bit	-10.8011
▁laissant	-10.8012
▁pat	-10.8012
VI	-10.8014
▁Gérard	-10.8016
▁subi	-10.8016
▁farine	-10.8017
▁citron	-10.8018
▁Contactez	-10.8019
▁dizaines	-10.8019
▁socio	-10.8019
ô	-10.8021
▁touché	-10.8024
▁découvrez	-10.8027
ice	-10.8028
▁souligne	-10.8028
pl	-10.8037
▁détente	-10.8039
▁communautés	-10.8039
▁concernés	-10.804
▁pauvre	-10.8041
act	-10.8043
zo	-10.8044
ID	-10.805
▁Vo	-10.8051
▁Trans	-10.8051
▁Microsoft	-10.8053
▁hi	-10.8056
▁Poste	-10.8059
▁WC	-10.806
▁Nice	-10.8062
▁Tor	-10.8065
ets	-10.8068
▁bol	-10.8072
97	-10.8074
▁Rouge	-10.8074
▁alimentation	-10.8075
UN	-10.8082
ile	-10.8084
▁600	-10.8084
▁populaires	-10.8086
▁carré	-10.8086
▁bou	-10.8086
▁salaire	-10.8089
▁Peu	-10.8091
▁étions	-10.8093
▁poster	-10.8098
▁fournisseurs	-10.8099
▁apporté	-10.8102
▁préféré	-10.8105
▁Ju	-10.8108
dr	-10.8109
nat	-10.8111
▁modernes	-10.8114
tz	-10.8115
▁automobile	-10.8116
naire	-10.8116
tie	-10.8117
▁organiser	-10.8118
▁révèle	-10.812
IM	-10.812
▁Villa	-10.8123
▁proposant	-10.8123
▁filtre	-10.8126
▁Vol	-10.8127
▁précieux	-10.8129
▁préciser	-10.8136
▁cible	-10.8141
▁sub	-10.8141
▁collaborateurs	-10.8143
ambiance	-10.8144
▁Nu	-10.8147
74	-10.815
lli	-10.8156
▁précédente	-10.8157
▁producteurs	-10.8159
▁sportif	-10.8161
▁villages	-10.8164
plan	-10.8165
▁sauvage	-10.8165
▁industriel	-10.8166
▁échéant	-10.8167
▁prévoit	-10.8168
▁regroupe	-10.817
▁Parlement	-10.8171
▁carton	-10.8173
▁Ligue	-10.8175
▁marcher	-10.8179
▁sentiments	-10.8181
are	-10.8182
▁journées	-10.8182
▁facebook	-10.8184
ali	-10.8186
▁née	-10.8187
▁retirer	-10.8187
▁parallèle	-10.8197
▁terrible	-10.8197
▁parvenir	-10.82
▁gentil	-10.82
▁téléchargement	-10.8206
ote	-10.8208
▁suppression	-10.8208
▁Sujet	-10.8216
7)	-10.8218
espoir	-10.822
▁discussions	-10.8224
▁remarque	-10.8227
▁tendre	-10.8227
▁eut	-10.8231
▁Radio	-10.8233
▁stand	-10.8234
▁dépôt	-10.8236
▁priorité	-10.8237
▁tablette	-10.8242
▁positif	-10.8243
▁fameux	-10.8243
▁quelconque	-10.8243
▁chances	-10.8248
▁Bureau	-10.8248
▁boulot	-10.8249
CA	-10.825
▁World	-10.825
ax	-10.8257
▁attaque	-10.8258
Assemblée	-10.8259
▁Pé	-10.826
▁mono	-10.8262
dor	-10.8262
▁achats	-10.8264
uri	-10.8264
▁éco	-10.827
page	-10.8274
▁Lumière	-10.8282
▁rejoint	-10.8283
▁régler	-10.8284
oul	-10.8286
▁assuré	-10.8288
ara	-10.8289
▁(18	-10.8294
▁baise	-10.8295
▁rarement	-10.8297
▁Livre	-10.8298
extrême	-10.8298
Et	-10.8298
▁annuelle	-10.8299
▁Situé	-10.83
url	-10.83
▁2012,	-10.8303
▁ru	-10.8303
bat	-10.8303
OT	-10.8306
▁cool	-10.8306
▁musicale	-10.8307
▁Ki	-10.8308
▁écologique	-10.8315
▁poisson	-10.8315
▁management	-10.8321
▁chevaux	-10.8321
▁profite	-10.8321
▁bat	-10.8321
▁démocratie	-10.8324
▁tenant	-10.8327
uel	-10.8329
bes	-10.833
activités	-10.8332
▁voyant	-10.8332
ast	-10.8333
nov	-10.8333
▁Ceux	-10.8336
rier	-10.8336
qua	-10.8347
envoi	-10.8348
▁file	-10.8352
▁variété	-10.8355
▁Strasbourg	-10.8359
▁significative	-10.8359
▁Renault	-10.836
82	-10.8361
▁tenté	-10.8361
▁Min	-10.8362
▁dette	-10.8362
▁voies	-10.8363
din	-10.8364
ity	-10.8367
▁Guy	-10.837
IF	-10.8374
▁postes	-10.8376
Allemagne	-10.8377
▁connecté	-10.8378
▁boucle	-10.8386
▁inscrire	-10.8388
logie	-10.8389
▁dites	-10.8391
▁vas	-10.8391
▁serrure	-10.8393
cr	-10.8394
▁Certaines	-10.8398
▁Meuble	-10.8398
▁clôture	-10.8398
▁Sophie	-10.8407
▁ouvrages	-10.8409
▁Ger	-10.841
▁tire	-10.841
▁proposée	-10.8413
▁plongée	-10.8414
équilibre	-10.8417
▁municipal	-10.8417
▁trait	-10.8418
kin	-10.8421
▁tours	-10.8429
▁interview	-10.8429
▁poitrine	-10.8437
ime	-10.8437
▁trajet	-10.8437
▁facilité	-10.8437
ord	-10.8438
▁coach	-10.8438
▁boire	-10.8439
▁appelée	-10.8443
▁im	-10.8443
▁anciennes	-10.8445
▁bijoux	-10.8446
▁repose	-10.845
anti	-10.8451
▁plaît	-10.8451
ath	-10.8454
▁constituent	-10.8455
ouvre	-10.8456
tions	-10.8459
▁présentée	-10.8468
▁sexuelle	-10.8469
▁Mini	-10.847
▁portrait	-10.8476
▁promouvoir	-10.8476
▁historiques	-10.8478
▁panneau	-10.8479
▁définitivement	-10.8482
▁Samedi	-10.8482
▁abonnement	-10.8482
envie	-10.8484
▁Antoine	-10.8487
▁pauvres	-10.8488
▁comprends	-10.849
oy	-10.8495
▁fixé	-10.8497
▁label	-10.8501
▁esthétique	-10.8506
▁mar	-10.8508
▁08	-10.8508
▁tournoi	-10.8514
▁smartphone	-10.8514
▁ét	-10.8515
▁relevage	-10.8516
▁thermique	-10.852
▁concerts	-10.852
▁nulle	-10.8521
▁croit	-10.8523
▁réservés	-10.8523
lée	-10.8526
▁incontournable	-10.8526
▁q	-10.8527
▁visiteur	-10.8528
▁lol	-10.853
▁:)	-10.8532
▁Ya	-10.8533
▁Mé	-10.8547
▁07	-10.8551
▁trente	-10.8552
ettes	-10.8553
▁souple	-10.8555
illage	-10.8556
roy	-10.8558
▁Conférence	-10.856
▁We	-10.856
sans	-10.8563
▁Projet	-10.8564
61	-10.8565
▁générations	-10.8565
rel	-10.8569
▁épreuves	-10.8572
▁baiser	-10.8574
ordinateur	-10.8575
ssa	-10.8582
œil	-10.8583
▁Liste	-10.8584
étant	-10.8589
▁transmettre	-10.8597
▁grosses	-10.8597
court	-10.8603
▁complémentaires	-10.8605
cour	-10.8605
▁liée	-10.8608
▁Rou	-10.8609
dd	-10.8613
CI	-10.8613
II	-10.8613
août	-10.8615
attente	-10.8616
expertise	-10.8616
éni	-10.8616
▁marine	-10.8617
▁Ag	-10.8619
iz	-10.8622
▁plate	-10.8623
illé	-10.8629
▁Bour	-10.863
▁implique	-10.863
fu	-10.8631
▁choc	-10.8634
▁autonome	-10.8635
▁ar	-10.8635
immigration	-10.8635
▁Fondation	-10.8636
▁scénario	-10.8637
Uni	-10.8638
LA	-10.8641
79	-10.8641
▁Théâtre	-10.8642
▁Rapport	-10.8643
▁quasiment	-10.8645
▁tendances	-10.865
▁disposer	-10.8651
toi	-10.8652
influence	-10.8655
essentiel	-10.8655
▁mine	-10.8659
▁cultures	-10.8659
▁el	-10.8661
▁MA	-10.8661
▁identité	-10.8665
▁confirme	-10.8671
▁pilotes	-10.8671
▁législation	-10.8675
▁devront	-10.8675
/11	-10.8675
▁économie	-10.8677
▁poche	-10.8679
▁DVD	-10.8682
▁coque	-10.8682
▁ventre	-10.8687
eff	-10.8688
▁max	-10.8691
Homme	-10.8697
envoyer	-10.8697
SP	-10.8698
▁modifié	-10.8699
▁verra	-10.8702
▁Mu	-10.8703
▁agir	-10.8705
▁Autre	-10.8705
▁correct	-10.8705
▁escorte	-10.8707
▁pareil	-10.8708
table	-10.8709
▁Mise	-10.8711
▁permanence	-10.8715
▁ceinture	-10.8715
▁Durant	-10.8717
▁refaire	-10.872
▁rouges	-10.8721
▁profession	-10.8722
▁comparer	-10.8726
▁totalité	-10.8731
▁Espagne	-10.8734
Espagne	-10.8737
/7	-10.8737
▁ins	-10.8737
▁pourrais	-10.8737
gin	-10.8738
RA	-10.8738
lique	-10.8739
▁expertise	-10.8741
▁importance	-10.8741
▁lunettes	-10.8741
apprendre	-10.8742
▁raconter	-10.8743
album	-10.8743
FR	-10.8745
▁couper	-10.8747
.»	-10.8748
▁Provence	-10.8749
▁réalisées	-10.8749
ét	-10.8751
▁fatigue	-10.8755
▁synthèse	-10.8755
▁foule	-10.8756
▁évoluer	-10.8758
▁variable	-10.8758
▁Com	-10.8759
▁sombre	-10.8759
▁sécurisé	-10.876
▁Sécurité	-10.8761
▁numéros	-10.8763
▁messagerie	-10.8764
▁allemande	-10.8765
lar	-10.8767
▁commander	-10.8769
▁norme	-10.8769
▁Vente	-10.8771
▁Master	-10.8771
▁conférences	-10.8772
taire	-10.8773
▁James	-10.8773
▁recherchez	-10.8774
années	-10.8779
chon	-10.8782
▁référencement	-10.8787
▁Archives	-10.8793
▁mobilier	-10.8796
▁geste	-10.8801
▁magique	-10.8803
▁fiscale	-10.8805
▁feront	-10.8806
▁chargée	-10.8806
▁appartient	-10.8813
▁inférieur	-10.882
-5	-10.8824
▁établir	-10.8824
▁présentés	-10.8826
mal	-10.8831
aurai	-10.8831
▁voyez	-10.8837
▁astuces	-10.8838
▁magnifiques	-10.8839
▁fauteuil	-10.8839
▁gars	-10.8841
▁fidèle	-10.8842
▁procédures	-10.8843
▁dormir	-10.8846
ards	-10.8853
CHE	-10.8857
Avallon	-10.8859
▁élégant	-10.886
▁continu	-10.8861
▁versions	-10.8861
▁optique	-10.8862
issue	-10.8867
▁Aucun	-10.8867
▁étudié	-10.887
▁artisans	-10.8871
▁colis	-10.8875
▁Toujours	-10.8877
▁réalisateur	-10.8877
▁clavier	-10.8877
▁utilisent	-10.8879
▁??	-10.8886
▁pub	-10.8888
81	-10.8889
▁sûrement	-10.889
▁bénéficie	-10.8891
▁ren	-10.8892
uit	-10.8892
▁salut	-10.8895
▁caisse	-10.8896
▁travaillent	-10.89
▁mont	-10.8901
acteur	-10.8905
▁Pont	-10.8911
▁réfléchir	-10.8911
èle	-10.8912
tons	-10.8912
▁vendu	-10.8913
dont	-10.8916
▁peuples	-10.8917
aine	-10.8917
avion	-10.8918
▁Famille	-10.8918
▁façade	-10.8918
▁Genève	-10.8918
▁1998	-10.892
▁plante	-10.892
▁amené	-10.892
▁couples	-10.8923
▁câble	-10.8925
shirt	-10.8925
▁bière	-10.8925
▁(«	-10.8927
▁nouveautés	-10.8928
▁soldats	-10.8929
▁Vincent	-10.8931
▁alternative	-10.8933
73	-10.8934
▁légitime	-10.8934
nent	-10.8934
▁promo	-10.8941
▁féminine	-10.8942
▁agences	-10.8943
▁viol	-10.8955
▁Rhône	-10.8956
▁étrangères	-10.8957
▁lyon	-10.8957
▁combinaison	-10.8959
▁Cliquez	-10.8959
▁USA	-10.8962
▁épisodes	-10.8962
fort	-10.8963
▁Oh	-10.8964
▁vo	-10.8967
▁1990	-10.8969
▁sportive	-10.8969
▁Mr	-10.897
▁trucs	-10.897
EP	-10.8971
▁mental	-10.8975
▁tableaux	-10.8977
▁européennes	-10.8982
▁cons	-10.8985
ick	-10.8989
juin	-10.899
▁états	-10.8992
▁fondée	-10.8994
oct	-10.8995
▁03	-10.8997
▁coloris	-10.8998
bien	-10.9002
EE	-10.9005
▁rapides	-10.9007
▁auparavant	-10.9008
▁tiens	-10.9009
▁bis	-10.9012
▁gagne	-10.9013
▁virus	-10.9015
▁Trop	-10.9021
EM	-10.9021
▁Joseph	-10.9024
▁fermé	-10.9026
inspiration	-10.9026
accompagnement	-10.9029
▁voyageurs	-10.9031
▁publiée	-10.9033
▁bonus	-10.9035
▁culturelles	-10.9038
SI	-10.9041
▁Rendez	-10.9043
93	-10.9043
tait	-10.9045
entreprises	-10.9048
▁tube	-10.9048
▁essentielle	-10.9049
▁robot	-10.905
écart	-10.905
▁quelles	-10.9051
▁titulaire	-10.9051
▁pop	-10.9051
▁foyer	-10.9052
▁secondaire	-10.9054
▁pc	-10.9056
aille	-10.9056
▁Denis	-10.9057
▁couvert	-10.9062
▁56	-10.9063
▁heureuse	-10.9066
▁chère	-10.907
▁glace	-10.907
▁info	-10.9074
▁hébergé	-10.9084
▁discret	-10.9084
▁belgique	-10.9084
Par	-10.9088
▁Free	-10.909
ège	-10.9091
▁digne	-10.9091
▁stable	-10.9091
▁monté	-10.9093
ical	-10.9094
▁efficacité	-10.9097
▁ingrédients	-10.9106
▁constituer	-10.9107
▁contemporaine	-10.9107
gues	-10.9113
▁ronde	-10.9115
▁environnemental	-10.9116
▁culte	-10.9116
▁élu	-10.9117
▁dia	-10.9118
▁Ter	-10.9119
▁connait	-10.912
era	-10.9121
fin	-10.9124
▁animations	-10.9126
▁consentement	-10.9126
oud	-10.9126
▁mobiles	-10.9128
▁fur	-10.9129
▁Annonces	-10.913
▁(5)	-10.9132
▁sportifs	-10.9136
▁disponibilité	-10.9137
▁facture	-10.9137
▁biologique	-10.9137
▁Ton	-10.9139
▁adresses	-10.9142
▁USB	-10.9142
▁indépendante	-10.9148
▁huiles	-10.9148
▁intéressante	-10.916
▁susceptibles	-10.9163
▁basée	-10.9168
▁conforme	-10.9168
▁suspension	-10.9168
▁refuse	-10.9169
▁informer	-10.9169
▁influence	-10.9171
égard	-10.9172
ok	-10.9172
▁Sénégal	-10.9173
▁déroule	-10.9175
▁Continuer	-10.9176
▁motivation	-10.9179
RO	-10.918
▁climatique	-10.9181
▁croisière	-10.9181
▁serais	-10.9183
pré	-10.9184
ida	-10.9185
▁Membre	-10.9186
▁remercie	-10.919
thé	-10.9192
▁majeure	-10.9192
▁800	-10.9195
tit	-10.9196
Saint	-10.9199
▁rep	-10.9199
▁frappe	-10.92
bourg	-10.9201
▁sols	-10.9202
▁ordinaire	-10.9209
▁validation	-10.921
▁profondément	-10.921
▁mobilité	-10.921
▁GMT	-10.921
▁Maître	-10.9212
▁clan	-10.9212
▁chers	-10.9212
▁intitulé	-10.9214
▁inc	-10.9218
▁maternelle	-10.9218
▁bandes	-10.922
▁aperçu	-10.9225
▁frontières	-10.923
▁cellules	-10.923
ft	-10.9232
informatique	-10.9238
enregistrement	-10.9238
▁adopté	-10.9239
épreuve	-10.9239
teurs	-10.9243
▁Dan	-10.9249
▁attitude	-10.9249
2%	-10.925
▁Dominique	-10.9253
▁47	-10.9254
▁classé	-10.9256
▁78	-10.9256
▁étudiant	-10.9257
▁Turquie	-10.9257
▁Fin	-10.9258
▁manifestation	-10.9266
▁candidature	-10.9267
▁authentique	-10.9273
▁industrielle	-10.9275
▁95	-10.9276
▁reine	-10.9277
ata	-10.9278
agne	-10.928
écrire	-10.9284
ifier	-10.9287
▁jeter	-10.9291
▁fantastique	-10.9295
▁Richard	-10.9295
▁extra	-10.9297
▁Sarkozy	-10.9298
▁bonjour	-10.93
▁os	-10.9303
▁tirage	-10.9303
▁fournit	-10.9304
▁scènes	-10.9304
▁ST	-10.9306
mas	-10.9306
▁virtuelle	-10.9307
▁confirmer	-10.9307
▁secrets	-10.9308
of	-10.9312
▁équilibre	-10.9318
▁lourd	-10.932
▁peint	-10.932
▁traditionnel	-10.9323
humour	-10.9324
avoue	-10.9325
▁rentre	-10.9325
▁Visite	-10.9327
lay	-10.9331
hésite	-10.9331
venant	-10.9332
▁débit	-10.9337
▁disparition	-10.9338
▁texture	-10.9339
égalité	-10.9344
Pro	-10.9344
▁Sou	-10.9345
88	-10.9345
▁Modèle	-10.9345
▁remonter	-10.9345
▁ve	-10.9346
▁commerciales	-10.9355
▁présentent	-10.9357
▁allé	-10.9365
▁soupe	-10.9367
▁fonctionner	-10.9376
▁monte	-10.9377
ball	-10.9378
▁2017.	-10.9381
▁révision	-10.9382
▁grossesse	-10.9384
▁fixer	-10.9385
▁tiré	-10.9385
mie	-10.9388
▁Salut	-10.9391
▁Commerce	-10.9391
▁prends	-10.9397
vert	-10.9397
▁efficaces	-10.9398
▁étonnant	-10.9398
▁72	-10.9399
cou	-10.9399
▁bassin	-10.9399
▁remarqué	-10.94
alis	-10.9402
▁Ser	-10.9405
▁dirige	-10.9412
▁hé	-10.9415
▁individuelle	-10.9418
▁témoignages	-10.9422
▁mineur	-10.9423
appui	-10.9423
▁gluten	-10.9424
▁destruction	-10.9424
▁considérer	-10.9424
▁Jusqu	-10.9424
▁élève	-10.9425
▁Compte	-10.9429
rite	-10.943
▁branche	-10.9432
▁spirituelle	-10.9436
▁touristiques	-10.9437
▁tentative	-10.9441
▁conclusion	-10.9441
▁aventures	-10.9443
▁chic	-10.9454
▁sortes	-10.9456
▁nationales	-10.9458
▁arrondissement	-10.9462
▁instrument	-10.9463
▁retenue	-10.9463
▁archives	-10.9463
...),	-10.9464
▁dommages	-10.9469
otte	-10.9471
événement	-10.9475
omb	-10.9483
▁remet	-10.9484
▁Cal	-10.9485
▁avenir	-10.9488
▁prenez	-10.9488
▁Vert	-10.9493
▁Autres	-10.9497
ieux	-10.9498
▁Za	-10.9498
▁internes	-10.9499
président	-10.9499
▁largeur	-10.9501
▁accessibles	-10.9502
▁bizarre	-10.9502
▁paru	-10.9505
▁Marcel	-10.9507
▁clubs	-10.951
▁Stéphane	-10.9511
▁Pat	-10.9511
▁Journal	-10.9513
sch	-10.9518
▁Thi	-10.9526
▁manche	-10.9529
▁symbole	-10.953
▁XIXe	-10.9535
▁Olivier	-10.9537
0.000	-10.9537
▁familial	-10.9542
uk	-10.9542
▁chanteur	-10.9542
▁dite	-10.9545
Ex	-10.9545
▁verte	-10.9554
▁commerciaux	-10.9554
▁permettront	-10.9554
▁merveilleux	-10.9555
▁identifié	-10.9555
▁stabilité	-10.9555
▁espèce	-10.9556
▁Face	-10.9559
▁présentées	-10.9561
▁pratiquer	-10.9563
PI	-10.9563
AF	-10.9564
▁Pre	-10.9571
▁douleurs	-10.9573
▁foot	-10.9573
▁Tel	-10.9577
▁Emmanuel	-10.9577
▁pédagogique	-10.9578
7%	-10.9578
die	-10.9579
▁bénévoles	-10.9584
Source	-10.9586
col	-10.959
▁refuser	-10.9593
▁défaite	-10.9596
▁Bre	-10.9599
▁Paléo	-10.9599
usine	-10.9599
▁riz	-10.96
▁pou	-10.9603
▁cavités	-10.9604
▁permanente	-10.9604
▁58	-10.9605
1.	-10.9607
▁cr	-10.961
▁chinoise	-10.9618
▁exercices	-10.962
▁avantage	-10.9621
▁faisons	-10.9622
▁existent	-10.9622
▁constat	-10.9623
coup	-10.9624
via	-10.9626
▁chats	-10.9628
▁1°	-10.9632
▁monnaie	-10.9633
▁italienne	-10.9634
tter	-10.9635
▁sensibles	-10.9637
ves	-10.9637
▁détruit	-10.9639
imp	-10.9641
▁défis	-10.9642
▁chômage	-10.9642
▁hein	-10.9645
▁serai	-10.965
▁conseillers	-10.9651
▁chrétienne	-10.9655
▁accusé	-10.9656
▁fortes	-10.9658
▁informé	-10.9659
▁ras	-10.966
mit	-10.9661
RES	-10.9663
▁fabricant	-10.9664
▁taxe	-10.9668
▁compatible	-10.9671
▁Amérique	-10.9674
François	-10.9676
Louis	-10.9676
▁unité	-10.9676
inscrit	-10.9676
leur	-10.9676
▁voila	-10.9679
▁Département	-10.968
lt	-10.9682
▁prochaines	-10.9683
▁livré	-10.9686
▁simplicité	-10.9686
▁pouvais	-10.9686
▁Macron	-10.9687
▁2016.	-10.9687
▁ressent	-10.9694
▁consacrée	-10.9694
ban	-10.9696
▁arrêter	-10.9698
graphie	-10.9699
▁Mc	-10.9699
▁1995	-10.97
nger	-10.9701
gh	-10.9701
▁Agence	-10.9702
▁cliquer	-10.9703
▁remarquable	-10.971
▁Celle	-10.971
pli	-10.9712
élève	-10.9712
▁Série	-10.9713
▁app	-10.9713
▁soirées	-10.9713
▁Mat	-10.9714
▁remarquer	-10.9715
▁qualifié	-10.9718
yo	-10.9719
hommes	-10.9721
Agence	-10.9722
▁élevée	-10.9723
▁essentielles	-10.9724
▁fusion	-10.9724
▁fédéral	-10.9729
los	-10.9729
▁coco	-10.9729
▁débats	-10.9729
▁contacts	-10.973
▁Contact	-10.973
▁confirmé	-10.973
▁pseudo	-10.9731
gra	-10.9731
▁Signaler	-10.9733
ARD	-10.9734
ié	-10.9737
▁Fédération	-10.9738
fond	-10.9745
▁individus	-10.9748
▁Outre	-10.975
▁espagnol	-10.975
▁démarches	-10.9751
▁vague	-10.9752
▁montagnes	-10.9754
▁frontière	-10.9756
▁bisous	-10.9757
TA	-10.9759
▁animé	-10.9759
▁représenter	-10.9761
▁restera	-10.9761
▁contribuer	-10.9761
▁graphiques	-10.9764
lip	-10.9767
▁ennemis	-10.9769
/1	-10.977
▁Roi	-10.977
ls	-10.9771
▁dose	-10.9773
▁Produits	-10.9773
▁golf	-10.9773
▁gu	-10.9774
Com	-10.9775
▁Malheureusement	-10.9775
▁curieux	-10.9775
▁auxquels	-10.9776
▁progression	-10.9776
▁métro	-10.9779
▁FC	-10.978
▁savais	-10.9781
▁Bé	-10.9782
OP	-10.9785
▁Ajouter	-10.9786
▁Commune	-10.9789
▁coffre	-10.979
▁promis	-10.979
▁fondé	-10.9791
▁circonstances	-10.9792
▁supports	-10.9796
▁nov	-10.9797
▁retrouvé	-10.9798
▁téléphonique	-10.98
▁Sal	-10.9803
van	-10.9804
ula	-10.9806
agent	-10.9809
▁commerces	-10.981
cor	-10.9811
▁plonge	-10.9814
▁tre	-10.9815
▁média	-10.9815
▁humeur	-10.9818
▁Introduction	-10.982
▁grève	-10.982
▁quitté	-10.9822
▁51	-10.9823
ém	-10.9826
▁Bibliothèque	-10.9826
▁Men	-10.9827
8%	-10.9835
▁Israël	-10.9838
équipement	-10.984
illy	-10.9841
nez	-10.9842
▁initiale	-10.9843
▁Inde	-10.9846
▁destinés	-10.985
▁77	-10.9851
▁Sam	-10.9852
▁parlent	-10.9852
▁examen	-10.9852
intelligence	-10.9856
dra	-10.9858
▁exercice	-10.986
▁concurrents	-10.9861
▁54	-10.9861
▁69	-10.9862
▁condamné	-10.9862
▁indépendants	-10.9867
▁provenant	-10.9867
▁traitements	-10.9873
▁Point	-10.9874
▁industriels	-10.9876
▁registre	-10.9878
▁prit	-10.988
▁Tunisie	-10.988
Ré	-10.9883
▁pack	-10.9886
ore	-10.9887
▁voisins	-10.9888
lim	-10.9889
▁dating	-10.9891
way	-10.9893
ack	-10.9901
enfance	-10.9902
▁Nombre	-10.9905
PR	-10.9905
▁voisin	-10.9907
abandon	-10.991
▁concasseur	-10.991
▁pétrole	-10.9911
▁symptômes	-10.9916
onde	-10.9917
▁dirigeant	-10.9918
▁filet	-10.9921
éra	-10.9922
TT	-10.9924
▁accompagnée	-10.9924
▁dégâts	-10.9935
▁optimale	-10.9936
abo	-10.9938
▁huile	-10.9938
/10	-10.9942
nk	-10.9942
▁roulant	-10.9944
▁Type	-10.9945
▁lever	-10.9946
▁empêche	-10.9947
▁gain	-10.9948
hébergement	-10.9949
▁iPhone	-10.9953
▁épreuve	-10.9953
las	-10.9953
▁extérieure	-10.9955
▁curiosité	-10.9956
▁newsletter	-10.9956
84	-10.9956
▁ludique	-10.9957
▁acier	-10.9958
▁fausse	-10.996
▁oeuvres	-10.9961
▁réputation	-10.9963
▁Source	-10.9968
▁passent	-10.9971
▁cam	-10.9975
▁autorisé	-10.9976
IR	-10.9978
▁armée	-10.9978
▁forts	-10.998
▁musiciens	-10.9984
▁déposer	-10.9985
▁favorable	-10.9985
sions	-10.9987
ult	-10.9987
▁Var	-10.9988
▁Catégories	-10.9988
▁Né	-10.9991
▁limitée	-10.9991
▁commencent	-10.9994
▁blogs	-10.9996
▁différences	-10.9997
▁Her	-10.9998
▁Ber	-10.9999
▁librairie	-11.0002
▁nationaux	-11.0003
▁Tourisme	-11.0005
▁énergies	-11.0006
▁Mas	-11.0013
▁chaine	-11.0014
lam	-11.0014
▁peintre	-11.0015
tive	-11.0016
▁sachant	-11.0019
▁partagé	-11.0019
▁venant	-11.002
▁digital	-11.0021
▁pommes	-11.0023
▁IP	-11.0023
rom	-11.0027
mann	-11.0029
▁aliments	-11.0029
rig	-11.0033
▁Anti	-11.0036
▁interventions	-11.0036
examen	-11.004
source	-11.004
▁adore	-11.0042
▁intégrer	-11.0044
▁choisissez	-11.0048
▁mobilisation	-11.0048
▁franchement	-11.0051
▁palette	-11.0053
▁dessert	-11.0053
▁poissons	-11.0055
▁amitié	-11.0055
terie	-11.0056
▁rendement	-11.0057
▁appliquer	-11.0057
▁seniors	-11.0058
▁...)	-11.0059
▁Aucune	-11.0059
-4	-11.0062
RP	-11.0064
▁gras	-11.0065
▁suivie	-11.0066
▁boutons	-11.007
ges	-11.007
érer	-11.0076
tés	-11.0079
▁Offre	-11.0079
▁touristique	-11.008
▁jouent	-11.0081
▁oct	-11.0084
▁Avis	-11.0086
ED	-11.0088
▁confirmation	-11.0094
▁accueilli	-11.0097
▁console	-11.0099
▁cherchent	-11.01
▁préserver	-11.0101
▁supporter	-11.0101
▁Wa	-11.0103
▁instruments	-11.0103
rain	-11.0107
▁secours	-11.0108
▁Julien	-11.0111
▁attendu	-11.0113
▁lancée	-11.0114
▁duo	-11.0115
tech	-11.0115
▁pin	-11.0116
▁Etat	-11.0116
Con	-11.0117
▁enregistré	-11.0117
arc	-11.0118
▁fruitiers	-11.0118
outil	-11.012
els	-11.0121
rus	-11.0121
▁respecte	-11.0121
▁positive	-11.0127
▁Pan	-11.0131
amitié	-11.0133
lette	-11.0134
▁internationaux	-11.014
▁pensais	-11.014
-18	-11.0142
▁positionnement	-11.0143
ajouter	-11.0144
▁juifs	-11.0147
▁Cl	-11.0148
▁plainte	-11.0151
▁toiture	-11.0151
6)	-11.0152
▁spectacles	-11.0154
olive	-11.0157
ima	-11.0157
▁Arts	-11.0159
LI	-11.0159
NE	-11.0162
▁forums	-11.0164
option	-11.0165
▁recommandations	-11.0167
▁Marine	-11.017
exprimer	-11.0171
▁souffrance	-11.0173
▁moral	-11.0175
▁Bio	-11.0177
MENT	-11.0177
▁Lien	-11.018
orientation	-11.0181
▁conflits	-11.0182
pot	-11.0183
▁essai	-11.0185
▁PA	-11.0185
▁relever	-11.0186
▁lumineux	-11.0186
The	-11.0189
▁Juin	-11.0189
▁haine	-11.0193
NA	-11.0194
▁empêcher	-11.0194
▁courir	-11.0197
king	-11.0197
ich	-11.0198
▁rendent	-11.02
attend	-11.0202
▁fe	-11.0204
ît	-11.0207
occuper	-11.0207
▁éclat	-11.0211
▁présentant	-11.0213
▁Gar	-11.0214
▁aiment	-11.0214
▁94	-11.0218
▁absolu	-11.0219
▁spirituel	-11.0219
▁agricole	-11.0221
cteur	-11.0221
▁76	-11.0224
▁envies	-11.0225
patrimoine	-11.0228
▁noirs	-11.0229
▁librement	-11.023
venir	-11.0232
▁53	-11.0232
▁Néanmoins	-11.0233
▁catastrophe	-11.0233
gon	-11.0237
▁Ban	-11.0237
▁sérieuses	-11.0238
▁Thierry	-11.0239
oeil	-11.024
▁routes	-11.024
▁échanger	-11.0241
▁parisienne	-11.0242
EUR	-11.0249
TS	-11.025
lf	-11.0251
▁doucement	-11.0252
▁alentours	-11.0256
▁Sexe	-11.0258
▁orange	-11.0259
odo	-11.0265
ox	-11.0267
▁stratégique	-11.0269
▁sondage	-11.0269
▁paquet	-11.0269
▁acc	-11.027
▁complémentaire	-11.027
▁trouble	-11.027
▁secondaires	-11.0271
▁Ge	-11.0272
▁contraintes	-11.0275
▁Inc	-11.0276
habitation	-11.0277
Alpes	-11.0279
▁poulet	-11.028
▁suivent	-11.028
▁drogue	-11.028
▁folle	-11.0282
▁absence	-11.0284
▁composants	-11.0285
not	-11.0285
▁diffuser	-11.0286
▁souhaité	-11.0289
arme	-11.0294
▁pousser	-11.0295
▁récompense	-11.0295
▁privées	-11.0297
▁Hotel	-11.0297
▁can	-11.03
cale	-11.0302
▁spécialisés	-11.0302
ONU	-11.0304
ène	-11.0304
▁parlant	-11.0304
▁augmente	-11.0305
▁Ali	-11.0306
aurez	-11.0309
▁Vin	-11.0311
▁thèse	-11.0312
▁mineurs	-11.0313
gg	-11.0313
-6	-11.0314
▁2°	-11.0316
▁cacher	-11.0317
▁fondation	-11.0318
installe	-11.0321
obligation	-11.0322
▁(6)	-11.0323
▁Faut	-11.0324
▁gardien	-11.0324
▁écrite	-11.0325
▁manuel	-11.0327
▁formidable	-11.0327
▁répertoire	-11.0327
▁créativité	-11.0327
▁folie	-11.0327
▁guère	-11.0328
▁utilisons	-11.0329
Marie	-11.033
▁pique	-11.0331
▁continent	-11.0331
▁Ke	-11.0334
▁apparaître	-11.0336
▁pollution	-11.0336
▁futurs	-11.0337
▁Four	-11.0341
▁fondateur	-11.0341
▁show	-11.0343
▁Bro	-11.0346
▁stratégies	-11.0349
▁comportements	-11.0352
▁exercer	-11.0355
▁mentionné	-11.0358
tain	-11.0362
▁Mag	-11.0365
▁fournisseur	-11.0366
▁surpris	-11.0367
▁fiable	-11.0367
▁procédé	-11.0368
▁adaptées	-11.0369
▁casque	-11.0371
▁Système	-11.0371
ky	-11.0371
▁réglage	-11.0372
▁CR	-11.0372
▁électroniques	-11.0374
▁Déjà	-11.0375
▁douze	-11.0375
▁flash	-11.0375
▁humide	-11.0376
▁consultez	-11.0376
▁administratives	-11.0377
▁municipalité	-11.0378
▁rétro	-11.0378
▁îles	-11.0379
▁essais	-11.0382
-10	-11.0384
▁clic	-11.0384
▁future	-11.0386
▁agricoles	-11.0387
tch	-11.0393
agé	-11.0394
▁Gros	-11.0398
▁Berlin	-11.0402
ités	-11.0404
▁live	-11.0414
▁facteur	-11.0416
▁mod	-11.0419
nou	-11.0421
▁Choisissez	-11.0422
▁dîner	-11.0422
▁connaissez	-11.0424
▁balcon	-11.0424
▁progressivement	-11.0425
▁you	-11.0426
▁mesurer	-11.0427
▁Trouvez	-11.0428
▁correspondent	-11.0431
▁Nations	-11.0433
▁causes	-11.0435
▁billets	-11.0437
▁africaine	-11.0437
▁blonde	-11.044
▁poly	-11.0441
▁Lou	-11.0442
▁fortune	-11.0443
▁franc	-11.0453
▁mentionnées	-11.0455
▁transformé	-11.0455
▁avocat	-11.0462
trait	-11.0463
▁bête	-11.0463
ifs	-11.0467
▁Idéal	-11.0469
rsquo	-11.047
▁Numéro	-11.047
▁liaison	-11.047
MP	-11.047
▁relevé	-11.047
▁Certes	-11.047
ENS	-11.0471
▁zéro	-11.0471
▁trouvait	-11.0472
idées	-11.0473
▁not	-11.0474
▁issu	-11.0481
▁officiellement	-11.0482
▁normalement	-11.0484
ning	-11.0491
/6	-11.0494
▁sélectionner	-11.0496
intérêts	-11.0497
ible	-11.0501
▁évoque	-11.0505
▁traite	-11.0506
bin	-11.0507
▁occupé	-11.0511
▁Nature	-11.0512
gou	-11.0513
intermédiaire	-11.0515
▁morceau	-11.0515
ico	-11.0519
▁menée	-11.0525
fil	-11.0525
▁2011,	-11.053
rap	-11.0534
▁carnet	-11.0534
▁RT	-11.0541
▁complexes	-11.0541
▁sacré	-11.0544
▁mène	-11.0547
rencontres	-11.0547
SC	-11.0549
igny	-11.0549
▁Front	-11.0552
▁virtuel	-11.0553
](	-11.0557
mique	-11.0558
▁sportives	-11.0559
▁00	-11.0559
▁caméra	-11.0561
▁Montpellier	-11.0566
▁répartition	-11.0567
▁Gouvernement	-11.0567
▁assister	-11.0567
ESS	-11.057
▁Contacter	-11.0578
▁amateur	-11.058
▁Eric	-11.058
trice	-11.0581
▁jusque	-11.0585
bal	-11.0589
▁Ed	-11.059
▁favoris	-11.0592
ives	-11.0592
▁manga	-11.0596
▁évidence	-11.0598
▁POUR	-11.0599
▁star	-11.06
▁rat	-11.0605
▁Is	-11.0605
viv	-11.0606
▁gorge	-11.0607
▁identifier	-11.0608
▁Novembre	-11.0608
tron	-11.0609
▁saisons	-11.061
▁préférence	-11.0611
▁prépare	-11.0613
▁Grenoble	-11.0615
père	-11.0616
identification	-11.0616
▁prière	-11.0616
▁compose	-11.0619
▁suppose	-11.0621
▁Allez	-11.0621
box	-11.0623
▁Vendredi	-11.0624
▁informe	-11.0626
▁Musique	-11.0627
▁conclu	-11.063
Luc	-11.0632
dre	-11.0632
▁émission	-11.0635
appuie	-11.0635
▁portent	-11.0635
▁Alexandre	-11.0637
▁photographies	-11.0639
▁race	-11.0646
▁Film	-11.0648
▁Ab	-11.065
ute	-11.0651
▁Pascal	-11.0651
impose	-11.0655
entend	-11.0658
▁Commentaires	-11.0659
▁député	-11.066
▁obligation	-11.0663
▁règne	-11.0664
crit	-11.0664
▁banc	-11.067
▁déf	-11.0671
nois	-11.0672
Fi	-11.0674
▁publie	-11.0675
ram	-11.0675
lation	-11.0676
▁Charlie	-11.0676
▁dame	-11.0677
ors	-11.0677
▁doté	-11.0677
▁perso	-11.069
▁Ford	-11.0692
ml	-11.0693
▁moteurs	-11.0694
tien	-11.0694
oncernant	-11.0695
▁vols	-11.0698
▁brillant	-11.07
▁précisé	-11.0701
▁pharmacie	-11.0703
▁remplacés	-11.0704
▁fallu	-11.0704
AGE	-11.0707
▁savons	-11.0709
▁évaluation	-11.071
▁administrative	-11.071
angle	-11.071
▁rayon	-11.0711
avocat	-11.0712
▁Corée	-11.0712
ats	-11.0712
▁tranche	-11.0712
▁Open	-11.0713
élaboration	-11.0713
▁remporté	-11.0713
▁Droit	-11.0713
▁Où	-11.0713
▁Générale	-11.0714
▁sauce	-11.0714
▁étudiante	-11.0714
▁champion	-11.0715
bri	-11.0722
▁connus	-11.0722
bb	-11.0725
IV	-11.0727
▁Deco	-11.0727
▁manquer	-11.0728
▁rec	-11.0728
▁Gilles	-11.073
▁bleue	-11.0731
▁voyager	-11.0732
▁jolies	-11.0732
▁considérée	-11.0734
▁2009,	-11.0737
▁découvertes	-11.0744
▁Hôtel	-11.0744
▁sûre	-11.0745
low	-11.0746
▁voler	-11.075
▁informatiques	-11.075
▁constante	-11.0752
▁dépasse	-11.0754
▁diminuer	-11.0755
onné	-11.0756
▁géographique	-11.076
▁constructeur	-11.076
▁créateur	-11.0761
Michel	-11.0762
▁promet	-11.0762
journees	-11.0762
▁Ultra	-11.0762
▁gueule	-11.0762
▁Ministre	-11.0762
▁notification	-11.0762
▁2008,	-11.0769
▁boissons	-11.0769
▁Inscription	-11.0771
actions	-11.0772
▁intervient	-11.0772
▁romantique	-11.0773
▁Dimanche	-11.0774
▁Location	-11.0774
▁rêver	-11.0775
▁passionné	-11.0782
▁immédiate	-11.0784
▁perfection	-11.0787
▁taxes	-11.0787
▁balade	-11.0788
ôme	-11.079
gui	-11.0794
▁Che	-11.0798
▁racines	-11.0798
▁constate	-11.0801
▁engagé	-11.0805
mu	-11.0807
▁donnera	-11.0808
▁mat	-11.0808
▁bouteille	-11.0811
▁doigt	-11.0811
▁francophone	-11.0811
▁possession	-11.0812
▁génie	-11.0812
▁crainte	-11.0812
effort	-11.0812
▁détention	-11.0812
▁exclusif	-11.0813
▁sensibilité	-11.0813
▁couvrir	-11.0815
▁habituellement	-11.0816
€/	-11.0821
▁new	-11.0822
▁million	-11.0822
▁fermer	-11.0824
▁casino	-11.0826
▁personnellement	-11.083
▁inférieure	-11.0832
▁Ham	-11.0834
▁paraître	-11.0838
▁Gui	-11.0841
▁2013,	-11.0842
▁tué	-11.0846
▁(5	-11.0846
▁gel	-11.0847
▁ab	-11.0849
▁arrivent	-11.0851
lus	-11.0852
▁réunions	-11.0858
ney	-11.0858
▁psychologie	-11.0861
▁longs	-11.0862
aspect	-11.0863
OC	-11.0863
▁dessiner	-11.0863
▁sacs	-11.0863
intention	-11.0863
▁vues	-11.0867
▁destinées	-11.0868
▁fabriquer	-11.087
nn	-11.0873
▁île	-11.0877
ld	-11.0878
mir	-11.0881
del	-11.0881
place	-11.0884
▁fabriqué	-11.0897
▁assis	-11.0901
▁cabine	-11.0903
▁provisoire	-11.0903
▁suffisant	-11.0908
▁aff	-11.0911
version	-11.0911
▁Méditerranée	-11.0911
adaptation	-11.0913
▁détaillé	-11.0913
▁directrice	-11.0913
▁témoignage	-11.0913
entraînement	-11.0914
▁Sauf	-11.092
▁solo	-11.092
▁exemples	-11.0921
▁plu	-11.0924
▁vapeur	-11.0925
gy	-11.0926
▁Ste	-11.0929
LO	-11.093
▁jouets	-11.093
nette	-11.0936
PS	-11.0938
▁Sc	-11.0938
▁tort	-11.0942
▁interdite	-11.0944
▁Cre	-11.0945
▁publications	-11.0946
▁accordée	-11.0947
▁prof	-11.0949
▁disques	-11.0949
Ro	-11.0952
cité	-11.0953
▁Espace	-11.0954
▁PRO	-11.0956
▁citer	-11.0958
▁chair	-11.096
arbre	-11.096
Mo	-11.0962
▁effort	-11.0962
▁schéma	-11.0963
▁écho	-11.0964
▁cercle	-11.0964
▁détour	-11.0965
▁UN	-11.0965
gramme	-11.0968
▁entraîne	-11.0969
▁68	-11.097
ira	-11.0971
▁Odile	-11.0971
▁App	-11.0973
▁Roman	-11.0975
▁pneus	-11.0976
▁constaté	-11.0978
▁avion	-11.0984
dec	-11.0985
▁u	-11.0986
▁tissus	-11.0988
▁it	-11.0992
▁intervenir	-11.0997
▁exploitation	-11.0999
▁extrait	-11.1008
▁priori	-11.101
oi	-11.101
▁forfait	-11.1011
▁symbolique	-11.1012
▁BRGM	-11.1012
▁Monaco	-11.1012
▁comptoir	-11.1012
pre	-11.1016
▁fromage	-11.1017
▁challenge	-11.1018
MC	-11.102
ain	-11.1022
▁Collection	-11.1022
FA	-11.1025
▁mature	-11.1026
▁monuments	-11.1029
▁larmes	-11.1029
▁cote	-11.1031
▁commandé	-11.1031
ault	-11.1032
▁sp	-11.1034
▁musical	-11.1036
▁Quels	-11.1038
▁déclare	-11.1038
▁apparition	-11.1047
arrête	-11.1048
▁canal	-11.1052
imagine	-11.1056
▁souris	-11.106
▁gâteau	-11.1061
▁XL	-11.1062
▁coordination	-11.1063
▁mauvaises	-11.1065
▁servent	-11.1066
▁tracé	-11.1067
▁discipline	-11.1067
▁inutile	-11.1068
▁avancer	-11.1068
▁chaudière	-11.1069
▁Studio	-11.107
agissait	-11.1071
▁obtient	-11.1071
▁sage	-11.1072
▁Accès	-11.1073
issent	-11.1074
▁désirez	-11.1077
meur	-11.1078
▁emplois	-11.1083
▁détenteur	-11.1085
▁Actualités	-11.1087
▁interprétation	-11.1087
▁défini	-11.1094
isés	-11.1095
▁rou	-11.1107
/)	-11.1108
▁Photos	-11.1108
▁up	-11.1108
▁Idées	-11.111
▁Hé	-11.1113
▁broyeur	-11.1114
▁ya	-11.1114
▁chaleureux	-11.1118
▁externe	-11.1119
▁susceptible	-11.112
attendre	-11.112
▁éducation	-11.1121
▁]	-11.1122
▁voté	-11.1129
▁1997	-11.1129
sie	-11.113
▁DS	-11.1131
▁0.	-11.1132
DA	-11.1133
▁180	-11.1135
organiser	-11.1136
▁tourné	-11.1137
▁nuits	-11.1138
▁finances	-11.1138
▁rechercher	-11.1139
200	-11.1142
▁57	-11.1145
▁arme	-11.1146
zy	-11.115
empêcher	-11.1153
ige	-11.1155
▁temporaire	-11.1157
appliquer	-11.1159
EMENT	-11.1159
phone	-11.1161
Mar	-11.1163
PC	-11.1165
iller	-11.1166
▁couronne	-11.1167
individu	-11.1167
▁mit	-11.1167
▁Cro	-11.1168
nos	-11.1168
▁René	-11.1169
▁récent	-11.117
▁Travail	-11.1171
▁2015.	-11.1171
▁Alpes	-11.1171
▁gîte	-11.1172
kg	-11.1177
▁nationalité	-11.1179
uz	-11.1182
▁désigne	-11.1185
▁Fr	-11.1187
▁conscient	-11.1189
▁agit	-11.1191
500	-11.1191
chée	-11.12
▁remonte	-11.1203
▁lave	-11.1203
▁trompe	-11.1204
▁euro	-11.1209
pon	-11.1212
▁financer	-11.1214
ail	-11.1215
over	-11.1215
▁pantalon	-11.1217
▁perception	-11.1217
▁blé	-11.1218
▁ki	-11.1224
▁couture	-11.1225
▁box	-11.1225
▁conquête	-11.1226
▁documentation	-11.1226
▁66	-11.1227
islam	-11.1228
voy	-11.123
▁juger	-11.1232
adoption	-11.1233
▁publiés	-11.1238
▁bénéfices	-11.1239
IQUE	-11.1243
agisse	-11.1248
ANT	-11.1248
▁diffusé	-11.1251
▁malades	-11.1255
resse	-11.1255
▁voient	-11.1255
▁Chef	-11.1256
▁Don	-11.126
▁dentelle	-11.1261
▁artisan	-11.1262
▁réparer	-11.1272
▁Euro	-11.1273
ku	-11.1275
▁Mission	-11.1276
Une	-11.1277
▁clinique	-11.1278
cel	-11.1278
▁aidé	-11.1278
▁conformité	-11.1278
2014	-11.1279
▁jean	-11.128
mos	-11.1286
▁IN	-11.1289
▁Auteur	-11.1291
mand	-11.1291
▁commissaire	-11.1292
▁immeuble	-11.1294
▁aimez	-11.1298
sif	-11.1298
▁puissante	-11.1301
▁signal	-11.1303
▁dispositifs	-11.1306
ABE	-11.1306
▁remplacé	-11.1307
vision	-11.1309
▁linge	-11.131
ève	-11.131
mars	-11.1312
▁fabrique	-11.1313
▁case	-11.1313
▁conçue	-11.1315
▁déçu	-11.1316
▁Av	-11.1317
▁War	-11.1318
Utilisateur	-11.1319
▁?)	-11.1319
▁positions	-11.1319
▁sérénité	-11.1321
avère	-11.1321
▁internautes	-11.1322
▁1996	-11.1323
▁subir	-11.1324
▁tournage	-11.1325
acheteur	-11.1326
Algérie	-11.1327
▁so	-11.133
▁Patrick	-11.133
▁prostituées	-11.1332
▁appeler	-11.1333
▁certification	-11.1334
▁fl	-11.1335
▁attaques	-11.1336
▁Cam	-11.1336
▁rez	-11.1338
▁chaussure	-11.134
cia	-11.1342
▁interface	-11.1344
▁Br	-11.1346
▁ouvertes	-11.1347
▁concernées	-11.1348
▁sanitaire	-11.1349
▁maximale	-11.135
▁Eh	-11.1353
▁CL	-11.1354
▁soutenu	-11.1354
▁similaires	-11.1355
▁reconnaît	-11.1362
▁affirme	-11.1363
▁saura	-11.1363
▁Juste	-11.1366
▁Temps	-11.1366
▁Royal	-11.1366
▁Sha	-11.1368
mag	-11.1368
▁emplacement	-11.1369
rine	-11.137
▁indispensables	-11.137
▁Hollande	-11.1373
▁Dernière	-11.1374
ala	-11.1374
▁Clément	-11.1376
▁Libre	-11.1378
imposition	-11.1379
▁92	-11.1381
uf	-11.1381
▁évènements	-11.1381
▁épi	-11.1382
▁génial	-11.1383
▁papa	-11.1384
▁blessé	-11.1384
▁applicable	-11.1384
▁producteur	-11.1384
yant	-11.1387
ides	-11.1389
▁chaînes	-11.139
nne	-11.1395
▁départements	-11.1395
card	-11.1401
▁retourne	-11.1401
▁ressenti	-11.1409
▁Mur	-11.141
sous	-11.1415
▁roues	-11.1417
▁bé	-11.1418
▁enseignement	-11.1419
▁chimiques	-11.1425
▁délicieux	-11.1426
▁nettoyer	-11.1426
▁séparation	-11.1426
▁poétique	-11.1426
lés	-11.1426
▁visibilité	-11.1426
▁Fo	-11.1426
▁chapelle	-11.1427
▁noix	-11.1427
▁créateurs	-11.1428
▁passionnés	-11.1428
▁localisation	-11.1428
▁regardant	-11.1428
▁Net	-11.1429
▁terrains	-11.1431
audience	-11.1432
commerce	-11.1432
ator	-11.1433
tres	-11.1434
ui	-11.1435
▁mené	-11.1435
essayer	-11.1438
▁angle	-11.1438
▁chaise	-11.144
▁naviguer	-11.1441
riez	-11.1443
▁réservée	-11.1443
▁universitaire	-11.1446
BA	-11.1448
rice	-11.1451
▁disposez	-11.1451
alisation	-11.1452
▁Blue	-11.1453
▁habitudes	-11.1454
ING	-11.1457
▁Test	-11.1458
▁accompagnement	-11.146
▁thématiques	-11.146
▁honnête	-11.1461
▁Park	-11.1462
▁réagir	-11.1463
▁concernent	-11.1467
dés	-11.1469
▁professeurs	-11.147
▁saisie	-11.1472
NI	-11.1473
ements	-11.1475
illi	-11.1476
▁âgées	-11.1478
▁cinquième	-11.1478
▁échelle	-11.1479
▁jury	-11.1479
▁réglable	-11.148
▁environs	-11.1482
suiv	-11.1483
ski	-11.1483
▁goûts	-11.1485
▁souterraines	-11.1486
▁Mil	-11.149
▁Brésil	-11.1491
▁Cité	-11.1491
▁légende	-11.1492
gré	-11.1493
▁Fleur	-11.1498
▁égard	-11.1498
▁Simone	-11.15
éditeur	-11.1501
▁(17	-11.1501
▁oiseaux	-11.1501
▁rencontr	-11.1502
bout	-11.1504
▁50%	-11.1506
▁conserve	-11.1509
inte	-11.1513
▁traditionnels	-11.1513
▁capables	-11.1515
▁typique	-11.1523
UM	-11.1525
▁US	-11.1526
▁posté	-11.1527
▁balle	-11.153
▁print	-11.1531
rd	-11.1532
▁Rennes	-11.1533
▁faim	-11.1533
lieu	-11.1533
▁Consultez	-11.1534
▁Palais	-11.1534
▁parent	-11.1535
horizon	-11.1538
▁Bla	-11.1539
augmentation	-11.1539
▁pôle	-11.1541
▁May	-11.1542
▁vaccin	-11.1542
▁égal	-11.1545
▁Team	-11.1547
▁City	-11.155
▁red	-11.155
▁cuire	-11.1554
▁codes	-11.1555
▁Los	-11.1557
▁agent	-11.1559
▁Tre	-11.1559
▁assurances	-11.156
/12	-11.156
▁attendent	-11.1563
cation	-11.1564
▁ferait	-11.1565
▁ac	-11.1567
armes	-11.1568
toire	-11.1572
▁étudier	-11.1573
▁électro	-11.1574
▁applicables	-11.1574
▁Er	-11.1575
▁Sports	-11.1579
▁départemental	-11.1584
▁argument	-11.1584
▁généraux	-11.1585
▁méditation	-11.1585
▁libertés	-11.1588
▁Surtout	-11.1588
9%	-11.1589
▁Hommes	-11.1591
ii	-11.1591
/24	-11.1592
▁chape	-11.1593
ITE	-11.1596
▁val	-11.1597
tru	-11.1601
▁augmenté	-11.1605
▁312-	-11.1605
▁Etienne	-11.1606
▁remercier	-11.161
▁oreilles	-11.1614
▁Catégorie	-11.1616
▁initiatives	-11.1617
▁voter	-11.1618
▁existence	-11.1619
rot	-11.1619
ary	-11.1621
▁désigné	-11.1622
niste	-11.1622
ish	-11.1627
▁réduite	-11.1627
▁campagnes	-11.1633
▁caché	-11.1633
▁fenêtres	-11.1633
▁pensent	-11.1634
▁ministres	-11.1638
▁Global	-11.1639
▁considération	-11.1639
▁poignée	-11.1639
▁tiendra	-11.1639
▁Heureusement	-11.1639
▁comprennent	-11.1641
▁1992	-11.1641
▁édité	-11.1644
Blog	-11.1644
ota	-11.1645
▁Créer	-11.1647
eg	-11.1647
intégrer	-11.1648
▁participant	-11.1649
vrez	-11.165
nière	-11.1651
rc	-11.1655
▁littéraire	-11.1656
▁céréales	-11.1656
▁amoureuses	-11.1657
▁milieux	-11.1658
▁poli	-11.1661
▁Rock	-11.1663
▁charte	-11.1663
ogne	-11.1669
▁artificielle	-11.167
▁chemins	-11.1672
▁choisis	-11.1676
▁prévus	-11.1677
▁abandonné	-11.1679
▁conte	-11.1685
▁cat	-11.1687
0%	-11.169
▁partielle	-11.1691
▁Mercredi	-11.1693
▁sévère	-11.1693
▁compteur	-11.1693
bie	-11.1694
▁portefeuille	-11.1694
▁Affaires	-11.1694
▁relais	-11.1695
▁urbaine	-11.1696
▁1978	-11.1697
nay	-11.1698
▁mariée	-11.1698
▁Peter	-11.1699
▁Mel	-11.1704
▁descend	-11.1707
▁intention	-11.1709
▁exposé	-11.171
▁Vers	-11.1711
intégralité	-11.1711
▁similaire	-11.1711
back	-11.1711
trop	-11.1715
▁consommateur	-11.1718
organe	-11.1723
▁roche	-11.1724
cap	-11.1725
▁provoquer	-11.1734
nia	-11.1736
▁protège	-11.1738
sus	-11.1738
èche	-11.1739
▁Music	-11.174
ella	-11.1741
▁propriétés	-11.1741
▁Septembre	-11.1742
▁chronique	-11.1742
▁analyses	-11.1745
▁Réseau	-11.1745
▁proportion	-11.1747
▁Cheverry	-11.1747
▁fidélité	-11.1747
▁signification	-11.1747
▁vainqueur	-11.1747
▁business	-11.1747
▁lumineuse	-11.1747
▁diamètre	-11.1747
▁podium	-11.1747
▁Michael	-11.1748
▁Bravo	-11.1748
▁tabac	-11.1748
▁investisseurs	-11.1748
▁paradis	-11.1748
hou	-11.1749
▁Village	-11.1755
AG	-11.1755
atoire	-11.1756
▁Chacun	-11.1759
inverse	-11.176
▁adolescents	-11.1761
▁Décembre	-11.1763
▁investissement	-11.1763
▁concerné	-11.1767
▁thématique	-11.1767
▁adoré	-11.1768
mine	-11.1769
ssez	-11.1769
▁laine	-11.1769
▁boule	-11.1772
effectuer	-11.1772
▁TF	-11.1772
▁personnalisée	-11.1772
ual	-11.1777
▁casse	-11.1779
▁demandent	-11.1784
▁Hier	-11.1785
▁!!!!	-11.1787
▁perspectives	-11.1793
▁talents	-11.1798
▁transparence	-11.1802
▁Parfois	-11.1803
▁semelle	-11.1803
ero	-11.1803
lat	-11.1805
▁Data	-11.1805
▁convaincu	-11.1806
▁fri	-11.1807
▁flotte	-11.1807
▁vivement	-11.181
▁visuelle	-11.181
▁Jack	-11.1811
affichage	-11.1812
▁citoyen	-11.1812
main	-11.1814
▁faiblesse	-11.1814
▁graves	-11.1815
cf	-11.1818
▁intéressé	-11.1819
▁personnalités	-11.1819
▁formé	-11.182
doc	-11.182
▁observer	-11.182
▁accepte	-11.1823
▁universelle	-11.1824
rm	-11.1825
ark	-11.1826
▁citation	-11.1827
▁consommer	-11.1828
habite	-11.1834
▁reposer	-11.1835
sia	-11.1839
▁apprécier	-11.184
ius	-11.184
lois	-11.1846
acc	-11.1849
ium	-11.1851
▁imposé	-11.1856
▁fixation	-11.1857
▁Bertrand	-11.1857
▁instructions	-11.1859
▁résister	-11.1861
▁celibataire	-11.1861
▁Bruno	-11.1863
▁Protection	-11.1864
▁afficher	-11.1864
▁mentionnés	-11.1868
▁visa	-11.187
▁imaginer	-11.1871
Espace	-11.1871
rt	-11.1873
▁1,5	-11.1874
▁communautaire	-11.1878
▁technologique	-11.1879
▁lampe	-11.1882
▁religieuse	-11.1886
▁Lot	-11.1886
▁Vu	-11.1887
▁(7	-11.189
ben	-11.1896
▁pp	-11.1898
▁Mary	-11.1903
dan	-11.1903
▁sonore	-11.1904
▁statue	-11.1906
▁délégué	-11.1912
Ivoire	-11.1912
▁accords	-11.1913
▁miel	-11.1914
▁matchs	-11.1915
▁strictement	-11.1917
▁Avril	-11.1917
▁Ét	-11.1918
pir	-11.1919
▁Ram	-11.1919
ann	-11.192
GA	-11.192
▁fiches	-11.1922
▁Révolution	-11.1923
engager	-11.1926
identifier	-11.1927
▁mecs	-11.1934
▁dépasser	-11.1934
▁»)	-11.1934
▁Journée	-11.1935
uck	-11.1936
iti	-11.1939
mbo	-11.1942
▁efficacement	-11.1949
▁debout	-11.1951
▁prochains	-11.1954
▁probable	-11.1961
▁rempli	-11.1963
▁aient	-11.1965
▁Mexique	-11.1968
▁originaire	-11.1968
▁Washington	-11.1968
▁Côté	-11.1968
▁tennis	-11.1968
▁tranquillité	-11.1968
▁Contraire	-11.1968
▁plomberie	-11.1968
▁fraude	-11.1968
▁honte	-11.1969
html	-11.1969
▁jugé	-11.197
ere	-11.1971
▁1994	-11.1971
▁Hôtels	-11.1972
▁verbe	-11.1972
▁fun	-11.1972
▁marron	-11.1973
▁cu	-11.1976
▁démarrer	-11.1977
▁Soit	-11.198
PT	-11.1981
▁Crédit	-11.1982
top	-11.1982
▁apparaissent	-11.1985
cot	-11.1986
▁négociations	-11.1991
▁péri	-11.1992
▁urbain	-11.1992
▁docteur	-11.1992
▁considérable	-11.1993
▁seuil	-11.1993
▁moule	-11.1994
▁musées	-11.1995
▁origines	-11.1996
▁exprimer	-11.1999
▁bourg	-11.1999
▁Informatique	-11.2002
herbe	-11.201
▁architecture	-11.201
ffe	-11.2019
▁loup	-11.202
▁Vidéo	-11.2021
▁surement	-11.2023
▁Frédéric	-11.2024
▁suivez	-11.2024
▁basket	-11.2024
▁contenir	-11.2024
▁maritime	-11.2024
4%	-11.2024
▁Lundi	-11.2024
▁Octobre	-11.2024
▁vingtaine	-11.2024
▁souplesse	-11.2024
▁fût	-11.2025
▁supplément	-11.2025
▁piano	-11.2026
▁répondant	-11.2026
▁blanches	-11.2026
▁Télé	-11.2027
▁mépris	-11.2028
▁Algérie	-11.2028
▁€.	-11.2029
-8	-11.203
▁refusé	-11.2032
explique	-11.2032
▁souhaitant	-11.2035
“	-11.2036
▁One	-11.2036
▁mor	-11.2036
▁réaliste	-11.2038
ION	-11.2038
▁transforme	-11.204
▁opposition	-11.2042
▁gi	-11.2047
quer	-11.2048
▁Cours	-11.2048
▁légal	-11.205
▁traités	-11.205
insertion	-11.205
▁Pou	-11.2061
▁assistance	-11.2061
▁parcs	-11.2062
▁déplacements	-11.2067
▁mn	-11.2072
ume	-11.2076
▁aides	-11.2076
truc	-11.2079
emplacement	-11.2079
▁Congrès	-11.208
▁tactile	-11.208
▁Inscrivez	-11.208
▁absent	-11.208
▁Roger	-11.2081
▁fosse	-11.2082
▁goûter	-11.2083
▁sortant	-11.2086
▁invit	-11.2086
gué	-11.2088
▁Marché	-11.2091
▁graines	-11.2092
indépendance	-11.2093
▁initiative	-11.2094
▁Manuel	-11.2094
oz	-11.2095
▁roue	-11.2097
▁prévisions	-11.2097
len	-11.2098
Dame	-11.2098
axe	-11.21
▁entourage	-11.2101
▁74	-11.2102
▁compagnon	-11.2106
▁foncé	-11.2108
étage	-11.2116
▁signaler	-11.2118
▁Public	-11.2119
pan	-11.212
CR	-11.2124
reux	-11.2127
NS	-11.2129
tisme	-11.2132
nic	-11.2132
▁japonaise	-11.2134
/9	-11.2135
▁Fau	-11.2135
ize	-11.2135
▁introduit	-11.2136
▁vérification	-11.2136
▁souviens	-11.2136
▁nourrir	-11.2136
▁terrorisme	-11.2137
▁Chaussures	-11.2137
▁invisible	-11.2137
▁concevoir	-11.2138
▁favorise	-11.2139
accepte	-11.2141
▁Informations	-11.2141
ora	-11.2145
▁Galerie	-11.2146
▁vif	-11.2148
▁urgence	-11.215
accident	-11.215
accéder	-11.2151
▁Eco	-11.2151
éclairage	-11.2152
euil	-11.2153
▁écriture	-11.2162
▁thérapie	-11.2165
▁adhérents	-11.2167
▁guidée	-11.2167
▁serveurs	-11.2169
oux	-11.217
▁avancée	-11.217
▁combats	-11.2173
▁expression	-11.2174
▁ka	-11.2174
▁lis	-11.2176
▁compagnies	-11.2177
▁attiré	-11.2178
▁ouverts	-11.2179
▁continuent	-11.218
▁Big	-11.2184
nait	-11.2185
▁all	-11.2187
4)	-11.2187
sser	-11.2191
hal	-11.2191
▁Ferme	-11.2191
▁van	-11.2192
▁fameuse	-11.2193
▁protocole	-11.2193
▁multitude	-11.2193
▁Finalement	-11.2194
▁rituel	-11.2194
▁maquillage	-11.2194
DS	-11.2194
▁brevet	-11.2194
▁effectuée	-11.2197
▁Pri	-11.2203
▁accordé	-11.2203
▁atteinte	-11.2203
oreille	-11.2203
▁Mention	-11.2204
▁carbone	-11.2204
▁bénéficient	-11.2206
assi	-11.2207
-20	-11.2207
▁Grèce	-11.2207
▁explorer	-11.2207
déc	-11.2208
▁Portugal	-11.2209
sauf	-11.221
▁chrétien	-11.2212
▁marchandises	-11.2216
▁fau	-11.2218
ulation	-11.2218
▁aluminium	-11.2225
▁Jan	-11.2226
▁gardé	-11.2228
▁disposent	-11.223
▁Tr	-11.2234
▁fiction	-11.2235
▁qualification	-11.2236
▁sanitaires	-11.2239
▁prendra	-11.2242
NO	-11.2247
Mais	-11.2247
▁Dor	-11.225
▁voulons	-11.225
▁contraste	-11.225
▁serv	-11.2251
bor	-11.2252
▁Patrimoine	-11.2255
▁finition	-11.2257
▁1980	-11.2262
▁Gabriel	-11.2267
▁op	-11.2267
|--	-11.2268
▁coll	-11.2269
map	-11.227
▁passagers	-11.2271
▁mentale	-11.2273
entendre	-11.2276
▁pertes	-11.2276
▁Assurance	-11.228
▁asiatique	-11.2281
▁pomme	-11.2283
FI	-11.2284
▁technologiques	-11.2285
▁Mus	-11.2286
▁Normandie	-11.2286
▁cadres	-11.2287
▁;)	-11.229
▁pute	-11.2293
france	-11.2293
▁intéresse	-11.2294
▁TO	-11.2295
▁86	-11.2296
▁sièges	-11.2298
émo	-11.2301
▁do	-11.2303
▁bouge	-11.2303
▁précédentes	-11.2303
▁Conformément	-11.2308
Académie	-11.2308
▁islamique	-11.231
▁anglaise	-11.231
▁Nike	-11.2311
▁Congo	-11.2311
▁garantit	-11.2315
▁salade	-11.2315
▁Fête	-11.2316
▁blessures	-11.2316
▁policiers	-11.2316
day	-11.2317
▁datant	-11.2317
▁Bill	-11.2318
but	-11.2318
expédition	-11.2324
Internet	-11.2324
cker	-11.2325
▁températures	-11.2326
actu	-11.2327
wo	-11.2329
▁trous	-11.2331
▁régulière	-11.2331
nées	-11.2333
▁bourse	-11.2339
aucun	-11.234
▁Dame	-11.2343
▁Ph	-11.2347
▁réactions	-11.2349
vais	-11.235
▁sauvegarde	-11.235
▁oblige	-11.2351
▁110	-11.2351
ouf	-11.2353
▁(7)	-11.2354
▁Fe	-11.2358
édé	-11.236
▁gestes	-11.236
▁vive	-11.236
▁comédie	-11.2361
Mon	-11.2362
▁fermée	-11.2362
rance	-11.2363
▁commis	-11.2364
▁constituée	-11.2365
▁Adam	-11.2365
▁journaux	-11.2365
▁conseillons	-11.2366
▁démonstration	-11.2366
▁Résistance	-11.2366
▁solitude	-11.2366
▁musulman	-11.2366
▁CH	-11.2366
▁am	-11.2367
▁radiateur	-11.2368
▁aussitôt	-11.237
issa	-11.2372
▁fier	-11.2378
cus	-11.238
▁uniques	-11.2381
▁marquée	-11.2382
Hôtel	-11.2382
office	-11.2383
Dans	-11.2393
▁masculin	-11.2398
▁imprimé	-11.2398
▁promenade	-11.2399
▁bénéfice	-11.2399
▁rembourser	-11.24
Ca	-11.24
▁Tar	-11.2402
▁périodes	-11.2402
endre	-11.2405
naires	-11.2405
▁Ren	-11.2406
▁Spa	-11.2406
▁marge	-11.2408
▁casser	-11.2412
▁irr	-11.2414
▁inconnue	-11.2423
▁convaincre	-11.2424
▁notice	-11.2424
-12	-11.2425
▁restait	-11.2425
gne	-11.2425
▁Pl	-11.2427
▁rejet	-11.2428
▁ados	-11.2429
amis	-11.243
▁espoir	-11.2431
▁libérer	-11.2431
▁traits	-11.2432
▁passées	-11.2434
▁émis	-11.2434
ographie	-11.2434
▁opinion	-11.2434
▁Victor	-11.2435
oyer	-11.2437
▁google	-11.2437
▁boutiques	-11.2437
administrateur	-11.2441
▁investi	-11.2441
▁renseigner	-11.2442
▁finance	-11.2443
mois	-11.2443
▁2013.	-11.2444
▁originales	-11.2446
vre	-11.2447
▁Cho	-11.2448
Loire	-11.2448
▁parquet	-11.245
▁LED	-11.245
bro	-11.2452
ences	-11.2454
▁muni	-11.2454
Air	-11.2454
▁AL	-11.2455
dique	-11.2456
ound	-11.2456
rand	-11.2456
▁docteurs	-11.2457
TI	-11.2458
empêche	-11.246
▁temple	-11.2461
▁Constitution	-11.2462
▁coupable	-11.2463
eacute	-11.2463
▁perdue	-11.2465
▁rapporte	-11.2465
▁best	-11.2465
▁63	-11.2466
▁signer	-11.2467
▁Alex	-11.2467
▁église	-11.2469
lig	-11.247
alors	-11.2473
▁définitive	-11.2475
▁compétente	-11.2479
pr	-11.2479
▁pdf	-11.2481
ook	-11.2481
pha	-11.2481
▁capitaine	-11.2482
▁doctrine	-11.2482
▁fréquemment	-11.2482
▁paisible	-11.2482
▁trimestre	-11.2482
▁musculaire	-11.2482
▁hâte	-11.2482
pul	-11.2483
▁coûte	-11.2487
▁AR	-11.2487
mus	-11.2488
▁nécessairement	-11.2488
▁révélé	-11.2489
▁perles	-11.249
▁heureusement	-11.2494
▁Autant	-11.2495
▁russes	-11.2499
extension	-11.25
▁Meilleure	-11.2501
lem	-11.2502
hôtes	-11.2504
▁Office	-11.2507
▁communications	-11.251
▁faciles	-11.251
amuser	-11.2511
▁Fait	-11.2514
▁lisse	-11.2515
▁Albert	-11.2515
CP	-11.2515
form	-11.2518
▁chèque	-11.2518
▁problématique	-11.2518
▁militants	-11.2519
chet	-11.2522
▁troupes	-11.2523
▁rap	-11.2525
▁obligé	-11.2531
▁retrouvent	-11.2531
▁évaluer	-11.2532
▁ordonnance	-11.2533
▁maîtres	-11.2533
▁responsabilités	-11.2538
▁sublime	-11.254
▁robinet	-11.2541
▁Actuellement	-11.2541
▁Céline	-11.2541
▁suicide	-11.2541
▁déficit	-11.2541
▁Fonction	-11.2542
grand	-11.2543
▁veste	-11.2544
▁2014.	-11.2544
▁déguster	-11.2545
▁vrais	-11.2546
▁explications	-11.2554
▁Claire	-11.2555
▁Video	-11.2556
▁personnalisés	-11.256
apparition	-11.256
▁géant	-11.2561
iva	-11.2562
Paul	-11.2564
▁pénale	-11.2568
▁ultime	-11.2569
▁mentionnée	-11.2571
▁traditions	-11.2573
▁visité	-11.2577
▁solidaire	-11.2578
▁juive	-11.2579
▁civilisation	-11.2579
▁saine	-11.258
vet	-11.2582
▁coupé	-11.2582
quot	-11.2583
▁pri	-11.2587
ifiée	-11.2589
tern	-11.2591
▁comptable	-11.2591
▁fumée	-11.2591
▁mu	-11.2596
▁TVA	-11.2597
ART	-11.2598
press	-11.26
▁Vietnam	-11.26
▁miracle	-11.26
▁phpBB	-11.26
▁remboursé	-11.26
▁Management	-11.26
▁matériels	-11.26
▁prétexte	-11.2601
▁monsieur	-11.2602
▁Sauter	-11.2602
▁Corse	-11.2604
▁jazz	-11.2607
azi	-11.2612
▁trace	-11.2613
▁âgés	-11.2615
▁pourriez	-11.2618
▁Règlement	-11.2618
▁Champagne	-11.2621
▁écrits	-11.2622
▁régionaux	-11.2624
TER	-11.2626
▁adjoint	-11.2627
▁individu	-11.2627
▁Amazon	-11.2628
nde	-11.2628
attends	-11.2628
▁fournis	-11.263
▁actuelles	-11.2631
▁puce	-11.2631
▁appartements	-11.2638
▁navire	-11.2639
wan	-11.264
▁organisme	-11.2642
▁faibles	-11.2642
▁fonctionnaires	-11.2642
▁passages	-11.2642
▁valide	-11.2643
▁investissements	-11.2644
▁technicien	-11.2645
▁teinte	-11.2646
▁he	-11.2651
lais	-11.2652
▁Bat	-11.2652
▁souhaiter	-11.2653
▁we	-11.2659
▁affirmé	-11.266
▁cathédrale	-11.266
▁tetracycline	-11.266
UT	-11.266
PO	-11.2661
▁SC	-11.2666
▁réuni	-11.2667
mettons	-11.267
▁masque	-11.267
▁wc	-11.2671
▁dieu	-11.2674
▁ressentir	-11.2674
▁(8)	-11.2674
▁culturels	-11.2679
apporter	-11.268
▁justifier	-11.268
▁Im	-11.2682
▁disais	-11.2682
▁senti	-11.2684
▁protéines	-11.2684
observation	-11.2686
▁peintures	-11.2687
Ecole	-11.2688
logique	-11.269
▁décennies	-11.2692
Des	-11.2692
▁SUR	-11.2694
iennes	-11.2696
essai	-11.2697
▁Orange	-11.2697
cin	-11.2699
▁éclair	-11.2699
▁ho	-11.2704
▁attirer	-11.2704
▁paie	-11.2706
▁offerts	-11.2707
▁améliore	-11.2708
EA	-11.2716
instruction	-11.2718
▁prince	-11.2718
▁apparemment	-11.2719
▁carburant	-11.2719
▁figurant	-11.2719
▁patience	-11.2719
▁pauvreté	-11.2721
choupi	-11.2723
▁tailles	-11.2723
aucune	-11.2724
▁dépendance	-11.2724
▁contribué	-11.2726
venu	-11.2726
▁tournant	-11.2729
pic	-11.2729
▁ke	-11.273
pp	-11.2732
▁1970	-11.2732
▁160	-11.2736
▁variés	-11.2741
▁Dar	-11.2742
An	-11.2743
▁Saison	-11.2745
▁guider	-11.2746
▁varier	-11.2748
ologue	-11.2748
▁ti	-11.2749
▁CM	-11.275
▁préparé	-11.2753
▁volontaire	-11.2753
▁Asie	-11.2754
▁arc	-11.2758
▁remporte	-11.2758
▁constitution	-11.276
▁mécanisme	-11.2761
▁entrepreneurs	-11.2762
ison	-11.2764
▁attribué	-11.2768
IG	-11.2769
▁hébergement	-11.2773
▁sélectionnés	-11.2773
▁trés	-11.2774
▁égale	-11.2777
▁vernis	-11.2781
▁maïs	-11.2781
▁autorité	-11.2781
▁renouvellement	-11.2783
ura	-11.2783
▁at	-11.2785
▁tiennent	-11.2785
▁activer	-11.2786
▁connectés	-11.2787
▁recherché	-11.2787
▁bateaux	-11.2788
3,	-11.2791
▁Em	-11.2793
▁dessinée	-11.2795
▁Livraison	-11.2796
▁TR	-11.2796
▁Entrée	-11.2798
IB	-11.2799
espèce	-11.2802
anda	-11.2803
▁profitez	-11.2804
▁em	-11.2804
Marne	-11.2804
▁Mark	-11.281
VE	-11.2813
▁gamin	-11.2814
▁COM	-11.2817
▁dirais	-11.2818
▁dirigé	-11.2824
▁Far	-11.2824
avi	-11.2825
annonces	-11.2827
▁électorale	-11.283
▁Moulin	-11.2837
▁buts	-11.2838
▁demandez	-11.2839
▁manipulation	-11.284
▁reproduire	-11.284
▁colloque	-11.284
▁murale	-11.2841
espérance	-11.2841
▁drame	-11.2844
▁Action	-11.2845
▁extrême	-11.2847
▁adopter	-11.2848
▁bénéficiez	-11.285
▁Angleterre	-11.2851
▁esprits	-11.2852
▁GT	-11.2854
▁plaques	-11.2855
lumin	-11.2856
▁Post	-11.2856
▁déterminé	-11.2859
▁//	-11.2859
culture	-11.2862
océan	-11.2862
▁manqué	-11.2862
opinion	-11.2863
▁entraîner	-11.2863
atmosphère	-11.2863
octobre	-11.2863
▁profité	-11.2868
ennemi	-11.2868
▁francais	-11.287
El	-11.2872
mn	-11.2872
▁recueil	-11.2874
sée	-11.2876
▁façons	-11.2876
cas	-11.2879
▁XV	-11.2884
eb	-11.2888
▁âgé	-11.2891
▁gré	-11.2891
▁renseignement	-11.2893
▁Ac	-11.2893
▁trio	-11.2895
▁Mali	-11.2896
▁forment	-11.2898
▁issue	-11.2901
▁discrimination	-11.2901
▁divorce	-11.2901
▁pâtisserie	-11.2901
▁Bourgogne	-11.2901
▁présidence	-11.2902
▁Multi	-11.2902
▁Version	-11.2906
▁intervenants	-11.2906
▁mus	-11.2907
mel	-11.2908
▁transactions	-11.2909
▁Sp	-11.2912
▁off	-11.2913
▁sauvages	-11.2915
occupe	-11.2915
▁albums	-11.2916
▁ailes	-11.2917
Car	-11.2917
▁intime	-11.2917
▁Mass	-11.2918
▁américaines	-11.2918
▁Anglais	-11.2921
autonomie	-11.2925
AU	-11.2925
encre	-11.2926
▁tonnes	-11.2926
lect	-11.2927
ase	-11.2929
Voir	-11.2929
▁canon	-11.293
prix	-11.293
▁surprises	-11.2932
▁ravi	-11.2936
CT	-11.2936
▁inconnu	-11.294
▁coller	-11.2942
blé	-11.2951
▁2007,	-11.2951
ode	-11.2953
▁vé	-11.2954
▁emprunt	-11.2955
▁Ku	-11.2961
▁doctorat	-11.2963
▁rigueur	-11.2963
▁évolué	-11.2963
▁quinze	-11.2963
▁provenance	-11.2963
▁Prenez	-11.2963
▁mutuelle	-11.2963
▁poker	-11.2964
▁single	-11.2964
▁pension	-11.2966
▁delà	-11.2967
▁enregistrer	-11.2967
▁circulaire	-11.2967
▁régionales	-11.2968
▁frigo	-11.2968
▁sexuelles	-11.2969
▁renforcement	-11.2969
▁individuel	-11.2971
▁touristes	-11.2972
▁habituel	-11.2974
▁French	-11.2977
serv	-11.2978
▁concentrer	-11.2981
▁garanties	-11.2981
▁Cat	-11.2982
▁artistiques	-11.2985
▁2012.	-11.2985
École	-11.2987
▁confi	-11.2987
▁locations	-11.2988
▁pal	-11.2994
▁papiers	-11.2994
▁PAR	-11.2996
quette	-11.2998
▁Ven	-11.3
▁conjoint	-11.3
▁autonomie	-11.3001
▁réalisations	-11.3003
atte	-11.3004
▁averti	-11.3005
hier	-11.3006
▁avancées	-11.3008
▁théorique	-11.301
erre	-11.3011
▁canadien	-11.3013
▁délicate	-11.3016
pat	-11.3018
▁indice	-11.3019
▁tombée	-11.302
▁Cons	-11.3023
▁origine	-11.3023
▁brune	-11.3024
▁complexité	-11.3024
▁diminution	-11.3024
▁ventilateur	-11.3024
▁neutre	-11.3025
▁webcam	-11.3025
▁réfléchi	-11.3027
▁disparaître	-11.3027
angoisse	-11.3028
aut	-11.3029
istique	-11.3032
Empire	-11.3032
▁vir	-11.3033
ONS	-11.3034
mili	-11.3035
éme	-11.3036
▁stages	-11.3038
▁incluant	-11.3041
▁coins	-11.3043
▁ME	-11.3045
▁saut	-11.3052
▁pleur	-11.3053
ring	-11.3055
az	-11.3055
Inde	-11.3062
▁engagée	-11.3063
enti	-11.3065
enfin	-11.3067
▁impressionnant	-11.3067
▁rappelé	-11.3067
▁89	-11.3072
▁Pyrénées	-11.3075
▁centaine	-11.3075
▁allée	-11.3075
▁récolte	-11.3075
▁mixte	-11.3075
▁baie	-11.3078
▁terroristes	-11.3079
▁annuaire	-11.308
▁cheminée	-11.3085
uch	-11.3086
▁Donald	-11.3087
▁constamment	-11.3087
▁contiennent	-11.3087
▁Domaine	-11.3087
▁61	-11.3087
▁génétique	-11.3088
▁comparatif	-11.3088
Maritime	-11.3088
▁87	-11.309
▁consulté	-11.3092
▁Seul	-11.3093
▁styles	-11.3094
iale	-11.3095
▁jet	-11.3095
▁créant	-11.3096
▁”	-11.3099
▁Laissez	-11.3101
▁mien	-11.3103
aliser	-11.3103
▁impôts	-11.3104
allais	-11.3104
▁affronter	-11.3105
▁sérieusement	-11.3105
▁lits	-11.3107
ites	-11.3108
3.	-11.3108
▁entré	-11.3109
▁bancaires	-11.311
▁inspiration	-11.3111
gas	-11.3114
▁Zone	-11.3115
gel	-11.3115
▁commerçants	-11.3119
ouche	-11.3119
cide	-11.3122
▁arabes	-11.3123
▁issues	-11.3125
aki	-11.3128
▁verts	-11.3128
lly	-11.313
▁joint	-11.313
HA	-11.3131
shop	-11.3133
▁ajoutée	-11.3133
▁assurée	-11.3136
▁électricité	-11.3137
▁administratif	-11.3138
▁fibre	-11.3138
▁crimes	-11.3141
▁pen	-11.3141
▁assemblée	-11.3141
▁externes	-11.3142
▁équivalent	-11.3142
entrer	-11.3143
▁ann	-11.3144
▁grec	-11.3146
▁concession	-11.3146
▁Fu	-11.3147
EF	-11.3147
▁my	-11.3148
▁détruire	-11.3149
▁Versailles	-11.3149
▁crochet	-11.3149
optimisation	-11.3149
▁Plein	-11.315
▁Huile	-11.315
▁mg	-11.315
images	-11.3151
sk	-11.3152
▁Loisirs	-11.3157
▁Seulement	-11.3157
aimer	-11.3159
▁regardé	-11.316
▁Ensemble	-11.3161
▁sexualité	-11.3163
▁marin	-11.3163
▁2)	-11.3168
▁promotions	-11.3168
▁occupe	-11.3174
▁défend	-11.3177
▁digitale	-11.3185
40)	-11.3188
▁amène	-11.3188
▁souligner	-11.3191
olo	-11.3192
éti	-11.3193
▁Ligne	-11.3194
▁fraîche	-11.3198
▁CON	-11.3199
▁requête	-11.3201
▁éclairage	-11.3202
▁Kh	-11.3205
▁phrases	-11.3205
▁désire	-11.3208
lac	-11.3208
▁poêle	-11.3212
▁Championnat	-11.3212
▁Météo	-11.3212
▁récupération	-11.3213
▁vitrine	-11.3213
▁adaptation	-11.3213
▁Serge	-11.3214
▁deviendra	-11.3215
▁sexuel	-11.3217
▁dévoile	-11.3217
▁chanteuse	-11.3221
▁Jeune	-11.3224
ELLE	-11.3226
▁resté	-11.3226
▁épais	-11.3227
▁faisaient	-11.3229
▁%)	-11.3232
ieuse	-11.3233
▁souffre	-11.3233
étal	-11.3234
▁Vallée	-11.3234
▁débute	-11.3235
▁BR	-11.3235
▁précédents	-11.3237
échec	-11.3239
épisode	-11.3239
Christ	-11.3239
uer	-11.324
union	-11.324
nas	-11.3243
▁fabricants	-11.3243
évi	-11.3246
▁Kit	-11.3246
chez	-11.325
▁fiscal	-11.3252
graphe	-11.3253
▁latin	-11.3254
naise	-11.3258
issons	-11.3263
▁étais	-11.3265
▁soutient	-11.3265
▁fidèles	-11.3266
▁immobilière	-11.3266
zer	-11.3267
▁communs	-11.3268
▁optimiser	-11.3272
▁évènement	-11.3274
▁meurt	-11.3275
▁biodiversité	-11.3275
▁nomination	-11.3275
point	-11.3275
bot	-11.3275
▁pilotage	-11.3276
▁Coucou	-11.3276
▁maillot	-11.3277
lui	-11.3278
adapte	-11.3279
▁Voyage	-11.328
▁extérieurs	-11.3281
▁Kan	-11.3281
▁spéciales	-11.3281
chan	-11.3281
▁lentement	-11.3282
▁végétal	-11.3283
sible	-11.3283
ition	-11.3284
▁pochette	-11.3285
QUE	-11.329
▁répondent	-11.3291
▁bombe	-11.3291
▁Ros	-11.3293
▁mécanismes	-11.3294
▁attente	-11.3296
▁Mari	-11.3297
▁ph	-11.3298
▁transparent	-11.3301
▁usages	-11.3302
atteindre	-11.3303
▁assise	-11.3307
anche	-11.3308
lles	-11.3308
▁rendue	-11.3309
▁700	-11.331
")	-11.331
▁frein	-11.3313
▁récentes	-11.3317
▁master	-11.3317
▁fautes	-11.3317
RM	-11.3319
▁dotée	-11.3322
fo	-11.3324
tement	-11.3325
▁élaboré	-11.3329
▁projection	-11.3331
▁cassé	-11.3332
▁MO	-11.3333
▁transaction	-11.3334
▁royale	-11.3337
Islam	-11.3337
▁retourné	-11.3337
▁Justice	-11.3339
▁Samsung	-11.3339
▁prudent	-11.3339
▁Défense	-11.3339
humidité	-11.3339
▁électeurs	-11.3339
▁nue	-11.334
▁Cuir	-11.334
▁1989	-11.3342
▁trouvera	-11.3342
▁yoga	-11.3342
▁révéler	-11.3342
INE	-11.3346
▁nettement	-11.3346
▁émet	-11.3346
▁procureur	-11.3349
▁Catherine	-11.3349
▁Wal	-11.3351
▁Isabelle	-11.3352
▁Unique	-11.3352
▁mp	-11.3353
pers	-11.3355
▁effectif	-11.3355
▁Manche	-11.3357
TO	-11.3357
▁;-)	-11.3357
/8	-11.336
▁pape	-11.336
▁entrain	-11.3361
arr	-11.3361
▁dentaire	-11.3361
▁apport	-11.3362
▁Maisons	-11.3362
▁maîtriser	-11.3363
▁us	-11.3364
▁Emploi	-11.3366
Atlantique	-11.3367
laire	-11.3368
▁réflexions	-11.3369
▁appels	-11.337
▁taches	-11.3372
▁Vidéos	-11.3375
▁surfaces	-11.3377
9)	-11.3377
▁réside	-11.3381
ours	-11.3384
▁office	-11.3385
lire	-11.3386
▁spa	-11.3388
▁prouver	-11.339
▁marquer	-11.3394
▁témoins	-11.3395
▁distinct	-11.3397
▁spécialité	-11.3399
ili	-11.34
▁pouvaient	-11.3403
▁spéciaux	-11.3403
▁superficie	-11.3403
▁approprié	-11.3405
▁jupe	-11.3406
▁EUR	-11.3407
▁You	-11.3407
▁juridiques	-11.3408
▁philosophe	-11.3409
û	-11.3411
▁int	-11.3413
assemblée	-11.3416
▁doré	-11.3416
▁ob	-11.3417
▁conservateur	-11.3419
▁illustrations	-11.3421
▁morte	-11.3422
▁Croix	-11.3424
▁survie	-11.3427
exclusion	-11.3427
▁nation	-11.3428
▁assurent	-11.3429
▁effectués	-11.3429
▁diriger	-11.3436
▁évolutions	-11.3439
ev	-11.344
▁Maire	-11.3442
▁gra	-11.3442
▁armées	-11.3442
▁Vienne	-11.3444
▁teint	-11.3444
▁immédiat	-11.3448
▁gout	-11.345
rateur	-11.3451
▁poussé	-11.3453
▁consacre	-11.3453
▁(10	-11.3454
▁diplômés	-11.3454
▁épaules	-11.3455
aga	-11.3459
▁dispo	-11.3459
▁nourri	-11.3459
▁news	-11.3459
▁Acc	-11.346
▁enseigne	-11.346
▁migrants	-11.3461
▁fonctionnalité	-11.3463
▁rebelles	-11.3465
▁délicat	-11.3466
▁originaux	-11.3468
▁pourcentage	-11.3468
▁Machine	-11.3468
▁Roland	-11.3469
▁tantôt	-11.3469
infos	-11.3471
ji	-11.3471
▁toilettes	-11.3472
▁situés	-11.3474
▁résulte	-11.3476
▁rural	-11.3478
ades	-11.3484
▁chargés	-11.3486
▁hautes	-11.3487
300	-11.3491
▁hauts	-11.3493
▁investir	-11.3495
ologique	-11.3498
▁progresser	-11.3498
▁posée	-11.3501
▁passait	-11.3501
▁Enfants	-11.3502
▁affection	-11.3504
▁CN	-11.3504
▁visée	-11.3505
▁institution	-11.3506
Me	-11.3509
Tout	-11.351
▁fonctionnelle	-11.3512
ût	-11.3512
▁av	-11.3512
▁réfugiés	-11.3513
mot	-11.3518
▁73	-11.3518
▁Gen	-11.352
▁Sens	-11.352
▁Information	-11.3522
▁home	-11.3525
▁poursuite	-11.3528
alisme	-11.3528
▁hard	-11.3531
▁Exemple	-11.3532
▁cardiaque	-11.3532
▁chemise	-11.3533
▁neuro	-11.3533
-17	-11.3534
▁descente	-11.3535
▁synthétique	-11.3536
▁Vue	-11.3537
▁écrivain	-11.3538
▁Choisir	-11.3539
▁plait	-11.3541
▁bouger	-11.3541
verse	-11.3542
écologie	-11.3543
▁Longueur	-11.3544
▁poussière	-11.3544
▁1945	-11.3545
▁Bay	-11.3546
▁SMS	-11.3546
cier	-11.3548
▁gé	-11.355
▁libertin	-11.3551
▁Personne	-11.3555
▁Han	-11.3555
▁passés	-11.356
▁témoigne	-11.3561
▁Arrêt	-11.3564
▁tricot	-11.3565
ipp	-11.3566
augmenter	-11.3567
▁pédagogiques	-11.3568
▁actrice	-11.3571
▁DI	-11.3572
▁).	-11.3572
▁Hugo	-11.3572
▁retrouvez	-11.3574
▁faune	-11.3574
▁entouré	-11.3577
▁religions	-11.3577
▁enceinte	-11.3578
▁Lit	-11.3581
▁Ly	-11.3581
▁Heures	-11.3584
▁législatives	-11.3585
▁saga	-11.3595
▁circuits	-11.3596
▁fleuve	-11.3598
▁médicaux	-11.3598
▁précédemment	-11.3598
▁végétaux	-11.3598
▁ge	-11.3599
▁infrastructures	-11.36
▁Francis	-11.36
▁toilette	-11.3601
▁conclure	-11.3602
▁planification	-11.3602
▁Quoi	-11.3603
▁salarié	-11.3606
dier	-11.3606
tom	-11.3608
oche	-11.3608
▁courts	-11.3609
60)	-11.361
▁déclarations	-11.3611
chat	-11.3612
▁concepts	-11.3612
thérapie	-11.3615
▁cave	-11.3616
▁menaces	-11.3617
▁News	-11.3618
▁aimant	-11.3618
▁placement	-11.3622
▁envahi	-11.3623
▁Not	-11.3623
▁malheur	-11.3624
▁espère	-11.3624
▁rouler	-11.3624
AE	-11.3628
épargne	-11.363
ignon	-11.3633
arriver	-11.3633
ception	-11.3634
▁intègre	-11.3634
▁possèdent	-11.3637
!!!!	-11.3637
▁libertine	-11.3638
▁91	-11.3638
▁terminale	-11.3645
▁litres	-11.3648
rio	-11.3649
▁volets	-11.365
▁déplace	-11.3652
▁évite	-11.3653
▁parisien	-11.3654
▁anime	-11.3659
▁ban	-11.3662
ots	-11.3663
▁poète	-11.3663
▁amovible	-11.3664
▁Barcelone	-11.3664
▁Copyright	-11.3664
▁Madrid	-11.3664
▁délégation	-11.3664
▁secrète	-11.3664
▁gêne	-11.3664
intrigue	-11.3664
RC	-11.3664
▁barrage	-11.3665
▁Escort	-11.3666
▁essaie	-11.3668
link	-11.3668
▁Roche	-11.367
▁charmant	-11.3671
uré	-11.3671
▁intelligence	-11.3677
▁réunis	-11.3678
▁tablettes	-11.368
CS	-11.368
▁Force	-11.3682
vier	-11.3682
accepter	-11.3682
cadre	-11.3682
▁AU	-11.3683
rem	-11.3684
clé	-11.3685
▁durer	-11.3686
▁élégante	-11.3692
▁évolue	-11.3692
Ou	-11.3693
gén	-11.3694
Li	-11.3695
uté	-11.3695
pu	-11.3695
▁couvre	-11.3696
ibilité	-11.3696
▁battu	-11.3697
▁grain	-11.3698
femme	-11.3698
ito	-11.37
▁remplace	-11.37
ules	-11.3702
▁violences	-11.3703
▁horaire	-11.3704
▁branches	-11.3704
▁actuels	-11.3706
UP	-11.3706
▁job	-11.3707
▁contributions	-11.3708
▁93	-11.371
▁inscriptions	-11.3712
▁PO	-11.3713
▁fac	-11.3714
▁porteur	-11.3715
▁évoqué	-11.3716
▁130	-11.3718
▁gagnant	-11.3719
▁matinée	-11.3722
▁pers	-11.3722
AB	-11.3724
LES	-11.3724
▁Laval	-11.373
▁FN	-11.373
▁Professeur	-11.373
▁munitions	-11.373
▁retenir	-11.3731
▁sagesse	-11.3731
▁degrés	-11.3731
▁rôles	-11.3732
▁plaire	-11.3733
▁validé	-11.3734
▁sélectionnez	-11.3734
miné	-11.3736
▁distinction	-11.3738
▁1984	-11.3739
▁poursuivi	-11.3741
▁particulières	-11.3744
▁complété	-11.3745
▁Marque	-11.3747
▁occasions	-11.3748
écu	-11.3751
▁Combi	-11.3751
▁étroite	-11.3752
▁techniciens	-11.3753
▁estimé	-11.3753
neur	-11.3753
▁Read	-11.3754
▁terrestre	-11.3754
icule	-11.3755
▁grise	-11.3756
▁placée	-11.3756
▁caractères	-11.3758
TRA	-11.376
▁Flo	-11.376
▁seules	-11.3761
▁King	-11.3761
apport	-11.3762
évêque	-11.3763
chaussée	-11.3764
▁chimique	-11.3765
▁Gold	-11.3765
▁hectares	-11.3766
photo	-11.3766
adi	-11.3768
humain	-11.377
ken	-11.3771
▁apres	-11.3772
▁Bah	-11.3774
8)	-11.3774
▁1)	-11.3776
kh	-11.3776
mou	-11.3777
▁bl	-11.3777
arde	-11.3779
▁clip	-11.3779
▁confie	-11.3782
▁Love	-11.3786
su	-11.3787
oll	-11.379
rement	-11.3791
mission	-11.3791
▁mix	-11.3791
▁consacrer	-11.3792
AY	-11.3792
uelle	-11.3792
▁Long	-11.3795
▁chaudes	-11.3795
▁pavillon	-11.3796
▁souligné	-11.3797
▁Mathieu	-11.3797
▁parcourir	-11.3797
inquiétude	-11.3797
▁Spécialiste	-11.3798
▁soumettre	-11.3798
▁balance	-11.3799
▁topic	-11.3801
▁révolutionnaire	-11.3802
▁saveurs	-11.3804
PP	-11.3805
ye	-11.3806
▁sexuels	-11.3807
▁canadienne	-11.3809
▁cho	-11.3811
▁faille	-11.3812
▁corriger	-11.3812
▁Caisse	-11.3815
▁participent	-11.3816
▁abrite	-11.3818
▁PME	-11.3822
▁Wall	-11.383
▁occidentale	-11.3831
anniversaire	-11.3832
dine	-11.3832
orange	-11.3832
0€	-11.3835
Euro	-11.3836
uvre	-11.3837
tré	-11.3838
▁Dim	-11.3839
▁inf	-11.384
▁mélanger	-11.3843
▁Weil	-11.3844
▁Pop	-11.3847
pens	-11.3852
▁confié	-11.3852
▁invitation	-11.3854
▁passez	-11.3855
▁exclusive	-11.3858
-30	-11.3859
▁hall	-11.3859
▁dérive	-11.386
▁Mis	-11.386
▁Lang	-11.386
▁Bracelet	-11.3864
▁Convention	-11.3864
▁posséder	-11.3864
orthographe	-11.3864
▁succession	-11.3864
▁logistique	-11.3864
▁conversion	-11.3865
TC	-11.3865
▁prévenu	-11.3865
▁rectification	-11.3865
▁libération	-11.3865
rri	-11.3866
▁1993	-11.3866
vor	-11.3866
▁négatif	-11.3866
▁métallique	-11.3867
▁camion	-11.3867
▁syndicats	-11.3868
▁Ep	-11.3869
cc	-11.3872
▁67	-11.3875
▁acquérir	-11.3876
ache	-11.3878
▁tromper	-11.3878
▁déposé	-11.3879
▁croissant	-11.3882
▁associée	-11.3882
▁1960	-11.3883
▁admis	-11.3883
logue	-11.3887
nder	-11.3889
▁compositeur	-11.3891
▁identique	-11.3893
▁dérange	-11.3893
iner	-11.3893
▁médiévale	-11.3897
artistes	-11.3897
▁églises	-11.3898
épaule	-11.39
▁intelligent	-11.39
élevage	-11.3901
▁vagues	-11.3901
▁Bac	-11.3902
parole	-11.3902
▁religieuses	-11.3905
▁confirmée	-11.3907
▁dépassé	-11.391
▁Euros	-11.3912
▁rendant	-11.3912
interprétation	-11.3913
▁!).	-11.3916
▁Camp	-11.3918
▁duquel	-11.3923
▁Coup	-11.3925
▁déb	-11.3926
▁team	-11.3927
▁tubes	-11.3927
IX	-11.3929
▁Contrôle	-11.3931
▁caoutchouc	-11.3931
▁manuscrit	-11.3931
▁silhouette	-11.3931
▁Girl	-11.3931
▁séduire	-11.3931
▁tit	-11.3932
▁Soyez	-11.3933
duit	-11.3933
▁Production	-11.3934
▁étrangère	-11.3936
▁noires	-11.3936
▁artisanale	-11.394
other	-11.3941
▁rassemble	-11.3941
▁Monte	-11.3942
oto	-11.3943
ST	-11.3945
▁avancé	-11.3947
▁démarrage	-11.395
▁pl	-11.395
▁animation	-11.3953
▁usine	-11.3953
▁partagée	-11.3954
▁DJ	-11.3955
▁pente	-11.3957
▁marocain	-11.3963
▁standards	-11.3963
▁installée	-11.3964
important	-11.3965
▁baisser	-11.3969
orgue	-11.3971
extrait	-11.3971
chu	-11.3973
▁chauffeur	-11.3976
▁Léon	-11.3977
Sa	-11.3978
get	-11.398
Ba	-11.3982
▁essentiels	-11.3983
▁procurer	-11.3984
COM	-11.3985
▁NF	-11.3989
▁provoqué	-11.3996
rien	-11.3997
MS	-11.3998
----------------	-11.3999
outre	-11.4
▁oeufs	-11.4001
▁voudrait	-11.4002
ulaire	-11.4002
▁from	-11.4003
▁ml	-11.4005
▁Sébastien	-11.4006
▁nike	-11.4007
▁listes	-11.4007
idé	-11.4008
fait	-11.4009
bois	-11.401
▁meurtre	-11.4012
own	-11.4012
▁vitamine	-11.4012
roi	-11.4016
▁coffret	-11.4017
▁exemplaires	-11.4017
▁mensuel	-11.4018
▁Frais	-11.4019
llier	-11.4019
▁Champ	-11.4023
Pas	-11.4024
▁RH	-11.4029
row	-11.4032
Cha	-11.4032
DC	-11.4033
▁crédits	-11.4033
▁offerte	-11.4034
▁universel	-11.4034
▁stars	-11.4035
blog	-11.4036
▁neuve	-11.4037
essence	-11.4038
▁88	-11.4038
▁Pal	-11.4041
▁gla	-11.4052
▁amélioration	-11.4053
▁autorise	-11.4056
▁flot	-11.4058
▁sensations	-11.406
▁poil	-11.406
infrastructure	-11.4066
▁soudain	-11.4067
▁coiffure	-11.4068
▁fracture	-11.4068
▁respectivement	-11.4068
▁Mouvement	-11.4068
▁Collège	-11.4068
-7	-11.4069
▁crayon	-11.407
▁arrivés	-11.4071
▁83	-11.4072
▁rayons	-11.4072
▁couches	-11.4072
▁actualités	-11.4072
▁>>	-11.4073
tir	-11.4074
▁Mort	-11.4076
▁Game	-11.4079
▁LCD	-11.408
▁data	-11.408
▁RO	-11.408
win	-11.4083
▁soigner	-11.4084
▁tranquillement	-11.4084
▁Ok	-11.4086
▁Cou	-11.4087
▁MAR	-11.4088
▁protégé	-11.4088
▁initial	-11.4089
▁Route	-11.409
▁navires	-11.4091
▁étranger	-11.4096
▁And	-11.4097
ITÉ	-11.4099
▁indiquer	-11.4099
▁Cu	-11.4099
▁gestionnaire	-11.41
utilisateurs	-11.41
▁congé	-11.4103
▁opportunités	-11.4103
▁Info	-11.4103
interface	-11.4106
international	-11.4107
▁verrez	-11.4107
lité	-11.4109
▁menées	-11.4109
▁surf	-11.4109
Apple	-11.411
▁plancher	-11.411
▁universités	-11.4114
▁Présent	-11.4115
change	-11.4117
▁Mots	-11.4117
▁Lac	-11.4119
petit	-11.4119
▁adapter	-11.4119
▁plateformes	-11.4124
St	-11.4125
▁audience	-11.4129
Am	-11.4129
▁AC	-11.4132
▁Installation	-11.4137
▁Meunier	-11.4137
▁compromis	-11.4137
▁débarrasser	-11.4137
▁Fontaine	-11.4137
▁suspect	-11.4137
▁auxquelles	-11.4137
▁gloire	-11.4137
▁GP	-11.4139
▁tape	-11.4139
oma	-11.414
▁Temp	-11.414
▁(8	-11.4141
▁Mariage	-11.4142
▁députés	-11.4142
▁habitat	-11.4143
aka	-11.4143
▁pouces	-11.4144
uche	-11.4144
▁consultant	-11.4145
▁témoin	-11.4145
▁actionnaires	-11.4146
▁marchand	-11.4147
▁notaire	-11.4149
▁apparence	-11.415
▁dira	-11.4153
▁Group	-11.4154
▁Aller	-11.4154
isées	-11.4154
▁merveilleuse	-11.4156
▁partant	-11.416
▁envoie	-11.416
▁opérateurs	-11.4161
▁sélectionné	-11.4163
▁intégrée	-11.4167
▁salons	-11.4168
▁Comp	-11.417
▁AS	-11.4173
–	-11.4176
▁Contre	-11.4178
▁spectateurs	-11.4179
▁Hy	-11.418
▁Dou	-11.4181
éco	-11.4181
▁Bus	-11.4181
▁romans	-11.4185
▁choisit	-11.4185
établir	-11.4187
émotion	-11.4188
▁Février	-11.4193
▁mathématiques	-11.4194
éné	-11.4199
▁575/2013	-11.42
▁correction	-11.4204
▁Californie	-11.4206
▁discrétion	-11.4206
▁trentaine	-11.4206
▁tampon	-11.4206
▁respiration	-11.4206
▁recevrez	-11.4206
▁AV	-11.4207
▁fiabilité	-11.4207
▁More	-11.4207
▁Revue	-11.4208
▁Clic	-11.4208
▁cigarette	-11.4208
▁futures	-11.4209
▁VTT	-11.4209
ifiant	-11.4212
expliquer	-11.4212
unique	-11.4216
▁filiale	-11.4217
▁crime	-11.4219
▁avocats	-11.422
▁opérationnel	-11.422
▁Analyse	-11.422
▁cite	-11.4221
▁permettrait	-11.4222
▁pile	-11.4223
indique	-11.4225
▁Ancien	-11.4228
▁valider	-11.4228
▁Fl	-11.4232
▁requis	-11.4232
▁bug	-11.4233
ware	-11.4235
EST	-11.4236
asile	-11.4236
▁repli	-11.4237
▁Gal	-11.4237
▁figures	-11.4238
vaux	-11.4239
▁trésor	-11.424
▁recommandée	-11.4243
interdiction	-11.4247
Office	-11.4247
▁98	-11.4247
▁hu	-11.4247
▁décrire	-11.4249
ago	-11.4252
▁signalé	-11.4252
▁Gl	-11.4254
▁Jour	-11.4257
till	-11.426
hin	-11.4261
▁distingue	-11.4262
▁Nor	-11.4263
▁détendre	-11.4263
▁saurait	-11.4266
▁fêter	-11.4267
▁obstacles	-11.4269
▁sain	-11.427
▁lève	-11.4271
▁Fille	-11.4271
▁psycho	-11.4274
▁scandale	-11.4275
terre	-11.4275
▁lâcher	-11.4276
▁Australie	-11.4276
▁corruption	-11.4276
▁holding	-11.4276
▁short	-11.4276
▁reflet	-11.4276
bio	-11.4279
▁bague	-11.428
▁Tchoupi	-11.428
Ad	-11.4281
▁médiatique	-11.4281
▁gère	-11.4282
▁1985	-11.4282
médi	-11.4283
lite	-11.4284
neau	-11.4286
dic	-11.4286
▁devrais	-11.4287
▁ép	-11.4288
▁GPS	-11.4288
▁Angeles	-11.4289
▁espérons	-11.4289
▁ressource	-11.4289
▁manteau	-11.4292
FF	-11.4295
▁variées	-11.4296
▁préférée	-11.4296
▁provoque	-11.4296
▁mines	-11.4297
▁Yo	-11.4297
▁défauts	-11.4298
▁brosse	-11.4298
▁contemporains	-11.4301
▁soumises	-11.4304
clin	-11.4311
▁20%	-11.4314
ister	-11.4314
emballage	-11.4317
Australie	-11.4317
éclat	-11.4318
▁CAP	-11.4321
▁online	-11.4322
heim	-11.4324
▁PAS	-11.4327
▁habit	-11.4328
▁FI	-11.4328
▁maux	-11.4329
▁Argent	-11.4329
▁admirer	-11.4331
▁put	-11.4332
for	-11.4333
▁calculé	-11.4333
▁Gou	-11.4333
▁ennemi	-11.4333
▁1/2	-11.4337
▁éd	-11.4338
objets	-11.4339
▁diffusée	-11.4339
VER	-11.4341
400	-11.4343
▁piles	-11.4344
▁Prince	-11.4346
▁Cré	-11.4346
▁Compagnie	-11.4346
▁polémique	-11.4346
▁joindre	-11.4346
▁générique	-11.4347
▁connaissait	-11.4347
▁seigneur	-11.4347
▁Didier	-11.4347
rale	-11.4347
▁engagements	-11.4347
▁recommandons	-11.4347
eries	-11.4348
▁continuité	-11.4348
ider	-11.4349
▁Résidence	-11.4355
▁Os	-11.4356
▁Indien	-11.4356
▁Américains	-11.4357
▁Cherche	-11.436
▁Lieu	-11.4362
.”	-11.4362
MAN	-11.4362
▁pis	-11.4362
▁filière	-11.4363
..."	-11.4364
▁salaires	-11.4365
▁Ten	-11.4366
▁céramique	-11.4366
▁dalle	-11.4368
Se	-11.4372
▁suspendu	-11.4372
ivité	-11.4375
▁900	-11.4376
▁copains	-11.4378
▁glisser	-11.4379
▁rajouter	-11.4379
▁Pra	-11.438
▁ordres	-11.4386
▁cotisations	-11.4387
gal	-11.4388
bur	-11.4389
immobilier	-11.4389
▁pattes	-11.4389
active	-11.4391
AI	-11.4392
):	-11.4393
▁reconnue	-11.4394
tives	-11.44
PH	-11.4402
▁véritablement	-11.4403
contre	-11.4404
imo	-11.4404
▁sale	-11.4406
hab	-11.4408
▁merveille	-11.4411
raf	-11.4415
bli	-11.4416
▁Vacances	-11.4417
▁baignoire	-11.4417
▁congrès	-11.4417
▁nocturne	-11.4417
▁coutume	-11.4417
▁multimédia	-11.4418
▁papillon	-11.4418
▁pensait	-11.4418
▁convivialité	-11.4418
▁Docteur	-11.4418
▁Qualité	-11.4421
outils	-11.4421
culaire	-11.4422
▁vivante	-11.4422
▁this	-11.4423
▁Alsace	-11.4424
▁noté	-11.4425
▁laissent	-11.4425
▁Lorraine	-11.443
▁incapable	-11.4431
▁publicitaire	-11.4432
";	-11.4432
EX	-11.4433
clés	-11.4437
EU	-11.444
▁visées	-11.4441
▁défenseur	-11.4442
▁MP	-11.4446
▁feux	-11.4447
pprovisionnement	-11.4449
atis	-11.445
ppe	-11.445
mod	-11.4453
ika	-11.4454
lise	-11.4455
▁apparu	-11.4456
▁devenus	-11.4458
▁violent	-11.4459
▁che	-11.4459
venez	-11.446
▁prochainement	-11.446
opportunité	-11.4461
Israël	-11.4461
compte	-11.4464
▁Maria	-11.4466
Martin	-11.4467
▁bravo	-11.4469
lien	-11.4469
▁Milan	-11.4469
systématiquement	-11.4469
▁subit	-11.447
▁gazon	-11.4471
▁adversaires	-11.4471
accent	-11.4473
▁Mad	-11.4484
▁Union	-11.4486
vid	-11.4486
▁soumise	-11.4487
▁vêtement	-11.4487
PL	-11.4488
▁guilde	-11.4489
▁gouvernance	-11.4489
▁chalet	-11.449
▁sobre	-11.449
▁organisateurs	-11.449
▁PVC	-11.4491
▁1986	-11.4492
celle	-11.4492
▁descendre	-11.4493
▁fraîcheur	-11.4493
▁fo	-11.4494
▁weekend	-11.4495
▁correspondance	-11.4495
▁Cast	-11.4496
▁dégage	-11.4499
▁concentré	-11.45
▁Fou	-11.45
▁processeur	-11.4501
accompagner	-11.4503
▁!"	-11.4505
▁sentiers	-11.4505
▁Heure	-11.4506
▁Concours	-11.4508
▁hotel	-11.4509
▁har	-11.4509
illo	-11.4512
▁remplie	-11.4512
▁harmonie	-11.4513
▁creux	-11.4514
ASS	-11.4515
▁réunir	-11.4516
▁ko	-11.4516
nac	-11.4517
▁privilégié	-11.4521
▁traditionnelles	-11.4523
▁tenues	-11.4524
▁Jeu	-11.4525
▁livrer	-11.4526
considérablement	-11.4528
▁Win	-11.453
▁avenue	-11.4532
▁end	-11.4533
abi	-11.4533
install	-11.4533
obtention	-11.4533
index	-11.4533
Claude	-11.4534
ances	-11.4534
▁Janvier	-11.4551
▁charmante	-11.4553
▁âgée	-11.4555
▁Julie	-11.4557
▁Aix	-11.456
▁Synopsis	-11.4561
▁dégradation	-11.4561
▁délicieuse	-11.4561
▁déplacé	-11.4561
▁routière	-11.4561
▁répétition	-11.4561
▁creation	-11.4561
▁usagers	-11.4562
▁modules	-11.4562
▁82	-11.4564
▁manquent	-11.4564
▁1991	-11.4564
▁taxi	-11.4565
▁approuvé	-11.4565
▁déménagement	-11.4566
▁99	-11.4568
maison	-11.4569
▁interactif	-11.4569
▁dirait	-11.4571
▁assurés	-11.4573
▁oeil	-11.4574
▁volumes	-11.4577
▁courants	-11.458
▁fus	-11.458
écrit	-11.4582
▁impose	-11.4584
▁cherché	-11.4587
imposer	-11.4588
▁plume	-11.4589
▁Chambres	-11.459
Qu	-11.4591
INS	-11.4594
BI	-11.4596
issage	-11.4596
▁véritables	-11.4597
▁devais	-11.4601
udi	-11.4602
▁émotion	-11.4607
osse	-11.4608
bla	-11.4608
▁relatifs	-11.4608
André	-11.4608
▁traverser	-11.4609
Paris	-11.4611
▁administrateur	-11.4613
▁dominante	-11.4613
four	-11.4617
▁plaine	-11.4617
pend	-11.4619
▁rapprocher	-11.4619
▁adversaire	-11.4619
▁batteries	-11.4619
lum	-11.462
▁causer	-11.462
▁alternatives	-11.4622
▁renouvelables	-11.4623
▁tas	-11.4623
▁chanter	-11.4624
ores	-11.4625
▁discrète	-11.4625
▁sincère	-11.4625
▁légale	-11.4625
ondes	-11.4626
▁Pic	-11.463
▁Seule	-11.4631
80)	-11.4631
▁Ouvert	-11.4632
▁sensibilisation	-11.4633
▁levier	-11.4634
articles	-11.4634
ONT	-11.4634
arch	-11.4634
▁Adresse	-11.4635
▁indi	-11.4635
▁dégustation	-11.4635
▁Église	-11.4637
▁résolu	-11.4637
▁traverse	-11.4639
▁aisément	-11.4639
▁demandant	-11.464
▁Hello	-11.464
▁franchise	-11.464
ssement	-11.4643
cut	-11.4643
dos	-11.4643
▁réunit	-11.4644
▁appui	-11.4647
▁rassemblement	-11.4648
acier	-11.4649
TRE	-11.465
▁consolidée	-11.465
▁Pologne	-11.4651
▁parvient	-11.4651
▁coloré	-11.4651
liers	-11.4651
▁fragile	-11.4652
Azur	-11.4652
▁mystère	-11.4652
▁Titre	-11.4653
▁régulier	-11.4653
▁veiller	-11.4653
▁intermédiaire	-11.4654
épi	-11.4654
LY	-11.4657
veille	-11.466
▁étages	-11.4661
appliquent	-11.4661
▁chercheur	-11.4663
vente	-11.4665
▁script	-11.4667
2-1	-11.4668
▁XXe	-11.4669
▁prostituee	-11.4669
▁Bag	-11.4678
▁saisi	-11.468
▁franchi	-11.468
well	-11.4681
▁Miss	-11.4682
mul	-11.4683
▁racine	-11.4683
▁contrainte	-11.4688
▁XVI	-11.4688
hors	-11.4688
▁colonnes	-11.4691
▁partagent	-11.4694
flex	-11.4696
▁Box	-11.4697
ude	-11.4698
▁vendus	-11.4699
▁**	-11.47
▁employé	-11.4701
▁poches	-11.4705
^	-11.4706
▁?"	-11.4706
▁démographique	-11.4706
abbaye	-11.4706
▁Liège	-11.4707
▁engagés	-11.4707
▁ramener	-11.4707
▁genoux	-11.4708
▁préférable	-11.4708
▁indiquant	-11.4708
▁prioritaire	-11.4709
▁Sh	-11.4709
▁effectuées	-11.471
▁Mairie	-11.471
▁favori	-11.4711
▁QG	-11.4711
oie	-11.4711
▁franco	-11.4714
▁George	-11.4714
▁Str	-11.4715
▁amicale	-11.4715
▁Vis	-11.4716
▁Tribunal	-11.4718
▁Tableau	-11.4718
▁francs	-11.4719
▁préfecture	-11.4721
ANCE	-11.4721
▁Play	-11.4723
▁verres	-11.4724
▁recharge	-11.4726
▁faculté	-11.4727
▁Suède	-11.4728
kar	-11.4728
▁fréquent	-11.4729
▁espérer	-11.4731
mètre	-11.4732
▁constitutionnel	-11.4733
gram	-11.4734
▁plonger	-11.4735
RS	-11.4737
Gu	-11.474
▁essence	-11.4741
▁parait	-11.4741
▁souriant	-11.4745
▁enlever	-11.4746
▁marocaine	-11.4747
▁GR	-11.4752
immeuble	-11.4754
ree	-11.4755
chin	-11.4757
▁expédition	-11.4759
▁visibles	-11.476
▁accompli	-11.4762
▁connues	-11.4764
ford	-11.4767
▁imaginaire	-11.4767
▁superbes	-11.4767
▁Hum	-11.4767
▁coquines	-11.4771
ubi	-11.4772
iki	-11.4775
▁instants	-11.4776
oxy	-11.4776
▁découpe	-11.4777
▁aile	-11.4777
ède	-11.4778
▁plomb	-11.4778
▁Peugeot	-11.478
▁appartenant	-11.478
▁buffet	-11.478
▁dictionnaire	-11.478
▁fiscaux	-11.478
▁vinaigre	-11.478
▁ouvrant	-11.478
▁érotique	-11.478
▁réclamation	-11.478
▁climatisation	-11.4781
▁revêtement	-11.4782
▁combattre	-11.4784
▁comparé	-11.4784
▁tenait	-11.4787
▁Mario	-11.4789
▁Avez	-11.4793
▁SO	-11.4794
▁majeurs	-11.4795
▁_	-11.4795
▁publicités	-11.4795
égal	-11.4796
aba	-11.4796
odeur	-11.4798
ettre	-11.4798
▁composantes	-11.4799
▁inédit	-11.4799
▁mag	-11.48
▁préférés	-11.48
▁Rouen	-11.4801
▁Cru	-11.4802
▁phare	-11.4802
▁semblable	-11.4803
▁éthique	-11.4809
▁dévoilé	-11.481
▁Eur	-11.4811
▁copine	-11.4815
▁Anna	-11.4816
deux	-11.4816
AIRE	-11.4816
▁locataire	-11.4816
▁aérienne	-11.4818
▁limitation	-11.4822
▁absolue	-11.4823
SM	-11.4824
introduction	-11.4828
▁jeté	-11.4829
▁2006,	-11.4829
opérateur	-11.483
ouve	-11.483
économique	-11.4831
▁prononcé	-11.4832
▁classés	-11.4832
▁79	-11.4832
och	-11.4834
[/	-11.4835
4.	-11.4838
▁hôtes	-11.4843
▁courtes	-11.4843
▁médicales	-11.4843
encontre	-11.4845
▁équipés	-11.4845
▁extraits	-11.4851
▁Bluetooth	-11.4854
▁Cameroun	-11.4854
▁SNCF	-11.4854
▁electrique	-11.4854
▁flexible	-11.4854
▁monétaire	-11.4854
▁mythique	-11.4854
▁résultant	-11.4854
▁linéaire	-11.4854
▁Toulon	-11.4854
▁séduit	-11.4854
▁Marketing	-11.4855
▁sauvé	-11.4855
▁Fiche	-11.4855
▁Games	-11.4856
▁célébration	-11.4856
▁tarot	-11.4856
▁princesse	-11.4856
▁chaleureuse	-11.4857
isto	-11.4857
porte	-11.4859
▁définit	-11.4861
▁Demande	-11.4864
écouter	-11.4864
▁emp	-11.4864
▁Achat	-11.4865
▁intéressants	-11.4867
▁correcte	-11.4872
▁Verre	-11.4873
▁couverte	-11.4875
▁lapin	-11.4877
web	-11.4878
instar	-11.4879
viens	-11.4879
▁bâton	-11.4879
▁Gay	-11.488
lov	-11.4882
▁problématiques	-11.4882
▁(0	-11.4883
▁surveiller	-11.4884
▁carrés	-11.4885
▁établie	-11.4886
▁posture	-11.4891
▁questionnaire	-11.4892
▁Parfait	-11.4894
▁matérielle	-11.4894
▁lin	-11.4895
montrent	-11.4901
▁mètre	-11.4904
animal	-11.4905
cade	-11.4906
▁hop	-11.4906
▁récupéré	-11.4908
lice	-11.4909
▁Phil	-11.491
▁publicitaires	-11.4913
ense	-11.4916
dom	-11.4918
▁abord	-11.4921
▁Tchat	-11.4923
▁performant	-11.4925
▁élevés	-11.4927
▁CC	-11.4928
Calédonie	-11.4928
▁indicatif	-11.4928
▁robuste	-11.4928
▁Meetic	-11.4928
▁racisme	-11.4928
▁Street	-11.4928
▁métropole	-11.4929
▁Simple	-11.4929
▁offrons	-11.4929
▁espérant	-11.493
▁chouette	-11.493
▁domination	-11.493
▁Cannes	-11.4931
autoroute	-11.4934
effectue	-11.4935
▁camarades	-11.4935
▁Année	-11.494
▁blocage	-11.4942
▁1940	-11.4942
osité	-11.4945
2000	-11.4945
▁exploité	-11.4947
▁industrie	-11.4948
imit	-11.4949
sens	-11.4952
▁fleuri	-11.4955
▁jambe	-11.4955
▁insiste	-11.4955
Val	-11.4956
▁modifiée	-11.4956
CM	-11.4958
oubli	-11.4959
▁ajout	-11.496
▁XIX	-11.4961
▁tribu	-11.4963
étique	-11.4963
UF	-11.4965
usement	-11.4966
▁produite	-11.4971
vue	-11.4972
▁refait	-11.4972
▁visuel	-11.4973
nan	-11.4975
▁ICI	-11.4976
Pa	-11.4976
▁abri	-11.4978
avancement	-11.4979
Esprit	-11.4979
épaisseur	-11.4979
informer	-11.498
tta	-11.4981
▁Real	-11.4982
étape	-11.4982
rive	-11.4983
▁arguments	-11.4983
▁Cul	-11.4984
▁DA	-11.4985
▁CP	-11.4986
Asie	-11.4986
▁installés	-11.4988
▁surprenant	-11.4989
tures	-11.4993
▁Entreprise	-11.4995
▁Cinéma	-11.4995
▁recev	-11.4998
▁adresser	-11.4999
▁alliance	-11.4999
▁écrans	-11.4999
apprécie	-11.5001
▁innovations	-11.5001
▁cimetière	-11.5004
▁équitable	-11.5004
▁Mobile	-11.5004
▁francophones	-11.5005
▁Gard	-11.5005
garde	-11.5005
▁serrurerie	-11.5006
▁planche	-11.5006
▁équivalente	-11.5007
▁vintage	-11.5007
experts	-11.5007
▁varie	-11.5008
▁centrales	-11.5008
▁musulmane	-11.5009
▁BTS	-11.5009
ei	-11.5011
aliste	-11.5011
▁Massage	-11.5011
▁Zo	-11.5013
▁abordable	-11.5015
grad	-11.5018
▁constant	-11.502
▁démontrer	-11.5021
long	-11.5021
▁genres	-11.5025
implant	-11.5025
lég	-11.5025
▁bordure	-11.503
▁Ass	-11.503
▁96	-11.5031
▁leçon	-11.5032
▁forêts	-11.5032
▁subvention	-11.5033
rum	-11.5036
ding	-11.5039
▁tensions	-11.5039
▁viendra	-11.5039
▁leaders	-11.5044
▁clos	-11.5044
▁Inventaire	-11.5045
▁illustré	-11.5047
▁romaine	-11.5048
▁bébés	-11.5049
trans	-11.5049
▁atmosphère	-11.5051
▁750	-11.5052
▁rédigé	-11.5053
▁compact	-11.5054
omi	-11.5055
Orléans	-11.5056
ever	-11.5057
▁violente	-11.5057
▁débutant	-11.5059
▁débuté	-11.506
stat	-11.506
▁EX	-11.5062
▁traitant	-11.5063
▁phases	-11.5066
▁démo	-11.5069
▁récents	-11.507
▁grandi	-11.507
▁Juillet	-11.5072
▁puissants	-11.5072
blo	-11.5073
▁solde	-11.5077
▁sanctions	-11.5078
cad	-11.5079
▁pelouse	-11.5079
▁préjudice	-11.5079
▁prélèvement	-11.5079
▁Images	-11.508
▁Café	-11.508
▁indien	-11.5081
▁confusion	-11.5081
▁végétale	-11.5081
▁Power	-11.5082
▁dramatique	-11.5083
▁accroché	-11.5084
iment	-11.5085
▁agréé	-11.5085
pla	-11.5086
▁Mail	-11.5088
▁réveil	-11.5089
No	-11.5089
▁Vieux	-11.5089
▁Boutique	-11.509
▁exige	-11.5091
▁Ker	-11.5092
▁Sau	-11.5095
▁travaillant	-11.5095
▁grandir	-11.5098
▁préoccupations	-11.5099
▁déploiement	-11.51
▁phénomènes	-11.5102
▁familiales	-11.5102
▁muscles	-11.5103
▁PL	-11.5104
▁contour	-11.5104
▁valorisation	-11.5108
▁aval	-11.5108
▁bulletin	-11.5109
▁spectateur	-11.5109
▁Commun	-11.511
▁Brun	-11.511
▁examens	-11.5114
▁remarquables	-11.5116
▁musicien	-11.5116
égu	-11.5118
▁analyser	-11.5122
▁réserves	-11.5122
▁pois	-11.5126
élite	-11.5126
▁fontaine	-11.5127
▁substances	-11.513
pol	-11.5132
acceptation	-11.5133
sky	-11.5138
▁triple	-11.5138
▁brun	-11.5146
ks	-11.5147
▁enseignements	-11.5148
php	-11.515
▁Cra	-11.5151
▁paiements	-11.5153
▁aborder	-11.5154
▁Construction	-11.5156
▁circonscription	-11.5156
▁cohérence	-11.5156
▁diplomatique	-11.5156
▁méthodologie	-11.5156
▁vignoble	-11.5156
▁Lausanne	-11.5156
▁certitude	-11.5156
▁Vasque	-11.5156
▁serieuse	-11.5156
duction	-11.5156
▁grotte	-11.5156
▁réservoir	-11.5157
▁prétend	-11.5158
▁extension	-11.516
▁situées	-11.516
▁suffisante	-11.5161
▁1988	-11.5162
▁Green	-11.5164
▁pull	-11.5165
voyant	-11.5166
ello	-11.5166
▁Jeudi	-11.5168
▁Enquête	-11.5169
▁indé	-11.5171
▁sortent	-11.5173
▁éditeurs	-11.5174
▁CCI	-11.5174
infection	-11.5175
▁parcouru	-11.5176
graph	-11.5177
▁vitre	-11.5177
▁armoire	-11.5178
▁preuves	-11.5178
▁Syn	-11.518
▁pli	-11.5183
▁soutenue	-11.5183
autisme	-11.5186
▁impliqué	-11.5187
▁préfér	-11.5188
▁Court	-11.5192
▁intelligente	-11.5194
merci	-11.5196
▁Application	-11.5198
▁enseignant	-11.5202
alisé	-11.5203
▁intéressantes	-11.5204
0)	-11.5207
ech	-11.5207
▁gouvernements	-11.5208
▁cross	-11.5209
▁10%	-11.5209
aimerai	-11.5209
▁encourage	-11.521
imagination	-11.521
service	-11.5211
aval	-11.5213
igue	-11.5214
▁Avoir	-11.5215
ographique	-11.5216
▁désirs	-11.5222
nny	-11.5223
▁merde	-11.5223
▁Mot	-11.5224
▁West	-11.5228
atifs	-11.5229
ms	-11.5232
authenticité	-11.5233
▁détermination	-11.5233
▁fondamentaux	-11.5233
▁hydraulique	-11.5233
▁procède	-11.5233
▁attentif	-11.5233
▁Excellent	-11.5233
▁dignité	-11.5233
▁Données	-11.5233
▁puissiez	-11.5233
▁Xavier	-11.5233
accroître	-11.5233
▁Conception	-11.5234
stra	-11.5234
▁refuge	-11.5234
▁panique	-11.5236
▁moulin	-11.5236
▁recevez	-11.5236
▁célébrer	-11.5237
▁envisage	-11.5238
▁mettez	-11.5239
▁préférences	-11.524
▁observe	-11.5242
▁rem	-11.5243
▁satellite	-11.5243
▁violation	-11.5243
▁Chapeau	-11.5244
▁orientale	-11.5244
▁préfet	-11.5249
EZ	-11.5253
actif	-11.5254
▁honneur	-11.5256
▁imagination	-11.5256
▁ambition	-11.5256
▁Romain	-11.5256
lla	-11.5257
▁Tant	-11.526
Oise	-11.526
▁anonyme	-11.5265
▁conviction	-11.5265
▁séminaire	-11.5265
▁sainte	-11.5266
▁levée	-11.5266
▁125	-11.5267
▁reportage	-11.5267
▁courante	-11.5267
ôt	-11.5268
Po	-11.5271
▁savon	-11.5271
▁œil	-11.5272
▁accidents	-11.5276
avions	-11.528
▁observations	-11.5281
LC	-11.5281
▁HT	-11.5283
▁respectant	-11.5288
enseignant	-11.5288
ssait	-11.5288
▁SI	-11.5289
▁résume	-11.5293
EB	-11.5294
▁étoile	-11.5296
▁laser	-11.5296
▁décédé	-11.5297
▁Bande	-11.5298
▁SEO	-11.5298
▁capture	-11.53
éléments	-11.5301
▁bâti	-11.5303
mesure	-11.5303
▁porc	-11.5305
▁Wiki	-11.5308
▁proviennent	-11.531
▁souverain	-11.531
endettement	-11.531
▁mettra	-11.5311
▁devaient	-11.5312
▁Base	-11.5313
▁difficilement	-11.5313
apa	-11.5313
tou	-11.5314
▁stop	-11.5314
▁représentations	-11.5315
▁réfrigérateur	-11.5316
acide	-11.5318
AA	-11.5318
▁prés	-11.5319
essaye	-11.5319
▁Store	-11.532
▁virage	-11.532
▁aérien	-11.532
kW	-11.5322
▁Pack	-11.5324
idi	-11.5324
▁fibres	-11.5324
rk	-11.5325
▁observé	-11.5331
▁renforcé	-11.5339
idéal	-11.5344
▁spectaculaire	-11.5345
▁Poly	-11.5345
tec	-11.5346
▁cahier	-11.5346
▁SAINT	-11.5352
▁guides	-11.5353
▁fournies	-11.5354
▁Reste	-11.5355
▁Main	-11.5356
pie	-11.5357
▁SM	-11.5357
▁intéressés	-11.5361
▁anal	-11.5361
▁retiré	-11.5362
▁traversée	-11.5363
▁assisté	-11.5363
▁placés	-11.5363
▁effectue	-11.5363
▁Ray	-11.5364
ars	-11.5366
elli	-11.5369
▁universitaires	-11.537
▁her	-11.5371
▁FF	-11.5372
interroger	-11.5374
fou	-11.5374
▁exister	-11.5374
▁fous	-11.5375
▁cris	-11.5375
▁chauffer	-11.5378
▁dépit	-11.5379
▁massive	-11.5382
▁At	-11.5386
étanchéité	-11.5388
▁branché	-11.5388
▁déterminant	-11.5388
▁massacre	-11.5388
▁Sommaire	-11.5388
▁Logiciel	-11.5388
▁prescription	-11.5388
▁élastique	-11.5389
▁provient	-11.5389
▁poivre	-11.5389
▁Venise	-11.5389
▁fiscalité	-11.5389
▁Dating	-11.5389
▁pâtes	-11.539
▁inscrite	-11.5391
▁regards	-11.5391
10)	-11.5393
▁class	-11.5394
▁admin	-11.5396
▁Restaurant	-11.5403
▁Vé	-11.5406
évacuation	-11.5408
▁mince	-11.5409
▁laver	-11.5411
▁notions	-11.5411
2012	-11.5412
▁2020	-11.5412
▁rangs	-11.5422
▁foie	-11.5424
▁fluide	-11.5424
▁bracelet	-11.5425
mari	-11.5425
▁touchant	-11.5426
▁fixée	-11.5429
▁manifeste	-11.5431
▁Garde	-11.5433
▁170	-11.5434
pres	-11.5434
entraide	-11.5434
iane	-11.5437
▁complètes	-11.5437
▁Shi	-11.5442
▁regardez	-11.5442
extraction	-11.5443
▁étendue	-11.5446
occupation	-11.5446
lab	-11.5446
adulte	-11.5447
▁XXI	-11.5447
ato	-11.545
▁Environnement	-11.5454
▁passera	-11.5458
oublier	-11.5459
▁renforce	-11.5459
▁résidents	-11.5463
▁Mans	-11.5463
▁divine	-11.5465
▁consécutive	-11.5467
▁ridicule	-11.5467
▁Business	-11.5467
▁voyait	-11.5467
approbation	-11.5467
▁clause	-11.5467
▁sociologie	-11.5468
▁agriculteurs	-11.5468
▁cartouche	-11.5469
▁créative	-11.5469
▁procure	-11.5469
▁81	-11.547
▁potentiels	-11.5471
tat	-11.5471
▁initié	-11.5472
▁Ouest	-11.5472
▁mouche	-11.5472
▁ponts	-11.5473
▁arrivant	-11.5474
bis	-11.5475
▁aménagement	-11.5478
▁Instagram	-11.5479
▁grandeur	-11.548
▁disposé	-11.548
▁précises	-11.5481
▁Tours	-11.5482
▁lourde	-11.5482
▁bru	-11.5485
▁fonctionnel	-11.5485
▁continuant	-11.5485
▁Document	-11.5485
▁Tapis	-11.5487
▁portage	-11.5487
▁interlocuteur	-11.5489
▁transmis	-11.549
▁Rep	-11.5491
lettes	-11.5491
▁Sy	-11.5497
▁renommée	-11.5497
▁2.0	-11.5498
▁emballage	-11.55
orte	-11.55
▁annoncer	-11.5504
▁encodeur	-11.5504
▁foire	-11.5505
▁Résultat	-11.5506
▁Déc	-11.5506
30,	-11.5508
▁talon	-11.5511
phy	-11.5513
▁particules	-11.5516
▁Sociale	-11.5519
▁verser	-11.552
▁prêtre	-11.5525
▁ralenti	-11.5534
▁Fre	-11.5537
▁1500	-11.554
▁ème	-11.5541
▁quantités	-11.5541
aye	-11.5546
▁Utilisez	-11.5546
▁carrelage	-11.5546
▁pertinence	-11.5546
▁poignet	-11.5546
▁spacieuse	-11.5546
▁Football	-11.5546
▁ikea	-11.5546
▁cuivre	-11.5547
▁adorable	-11.5547
▁géographie	-11.5547
▁Dia	-11.5547
▁répété	-11.5547
▁Douleur	-11.5547
▁combler	-11.5548
▁régulation	-11.5548
▁rassembler	-11.5548
▁firme	-11.5548
▁Organisation	-11.5549
oublie	-11.5549
▁Pratique	-11.555
vide	-11.5555
▁Franc	-11.5558
▁isolation	-11.5558
▁Style	-11.5559
élimination	-11.5563
rick	-11.5563
▁Pol	-11.5563
▁réels	-11.5564
▁Dessin	-11.5567
▁musiques	-11.5568
▁Augustin	-11.5568
scence	-11.5568
▁Crois	-11.5569
▁humour	-11.5573
▁Sor	-11.5573
▁détaillée	-11.5573
▁tv	-11.5574
▁Bob	-11.5575
▁néo	-11.5576
▁construite	-11.5577
MI	-11.5577
▁désolé	-11.5578
▁illustre	-11.5582
▁qualifiés	-11.5585
▁inoubliable	-11.5586
▁bénéficiaire	-11.5587
offres	-11.5588
▁employeur	-11.5588
▁sphère	-11.5589
▁rive	-11.5589
▁allure	-11.559
▁fuir	-11.559
▁Gon	-11.559
▁loisir	-11.5591
IER	-11.5593
nin	-11.5595
▁Institut	-11.5596
▁séjours	-11.5597
gn	-11.5599
▁automne	-11.56
▁MI	-11.5601
▁répartis	-11.5601
ido	-11.5605
Man	-11.5607
▁ram	-11.5607
▁game	-11.5608
altitude	-11.5609
▁servant	-11.5609
▁blessés	-11.561
▁Eu	-11.561
mond	-11.5612
très	-11.5613
EAU	-11.5614
▁choisie	-11.5616
tha	-11.5616
suis	-11.5617
▁opportunité	-11.5617
▁wa	-11.5618
pal	-11.562
▁garanti	-11.5621
▁videos	-11.5621
eo	-11.5622
▁habite	-11.5623
SS	-11.5624
▁rebond	-11.5624
ulé	-11.5625
▁instance	-11.5625
hum	-11.5626
▁Nintendo	-11.5626
▁banlieue	-11.5626
▁légendaire	-11.5626
▁maturité	-11.5626
▁quinzaine	-11.5626
▁singulier	-11.5626
▁soixante	-11.5626
▁généreux	-11.5626
▁rapidité	-11.5626
hospitalisation	-11.5626
▁gérant	-11.5627
▁Disney	-11.5627
▁Niveau	-11.5627
riat	-11.5627
▁Jeunesse	-11.5628
sel	-11.5629
▁royal	-11.563
▁capitalisme	-11.563
AND	-11.5631
▁converti	-11.5631
▁envoyée	-11.5631
▁imprimer	-11.5632
▁passions	-11.5634
▁modeste	-11.5635
▁Éditions	-11.5635
▁ok	-11.5636
▁tribune	-11.5638
anime	-11.5639
▁linguistique	-11.5641
UD	-11.5643
▁fiables	-11.5644
▁citoyenne	-11.5644
▁visiblement	-11.5645
read	-11.5645
mini	-11.5646
Tu	-11.5648
explo	-11.5652
▁activement	-11.5653
▁spatiale	-11.5659
sses	-11.566
▁imaginé	-11.5663
zé	-11.5664
▁partition	-11.5665
▁ferm	-11.5665
▁creuse	-11.5665
▁célèbres	-11.5668
▁parlait	-11.5668
▁négative	-11.5669
ivre	-11.5669
▁cellule	-11.5669
écris	-11.5671
amine	-11.5674
▁tentatives	-11.5675
▁conclusions	-11.5675
▁destinations	-11.5676
lait	-11.5676
ove	-11.5677
aya	-11.5679
▁conventions	-11.568
▁isolé	-11.568
▁retrouv	-11.5684
ALL	-11.5684
marin	-11.5686
icité	-11.5687
▁marie	-11.5688
tag	-11.5689
▁engage	-11.5689
mani	-11.569
▁Actualité	-11.569
BC	-11.5691
SF	-11.5691
▁169	-11.5693
▁cloche	-11.5694
▁glisse	-11.5695
▁protégés	-11.5698
▁sécurisée	-11.5698
▁disciplines	-11.57
▁Pin	-11.57
vienne	-11.5702
ERT	-11.5703
▁sauve	-11.5704
▁matériau	-11.5704
▁lâche	-11.5705
▁administrateurs	-11.5706
cours	-11.5707
personnalisation	-11.5707
▁académique	-11.5707
▁mystérieuse	-11.5707
▁privilège	-11.5707
▁remercions	-11.5707
▁vétérinaire	-11.5707
▁tweet	-11.5707
▁propice	-11.5707
▁nôtre	-11.5707
▁voulant	-11.5707
▁densité	-11.5707
▁bandoulière	-11.5707
eve	-11.5708
▁claque	-11.5708
▁litige	-11.5708
▁vitrage	-11.5708
▁ongles	-11.5709
▁aidant	-11.5709
▁produisent	-11.5709
233;	-11.571
▁tempête	-11.571
▁mangé	-11.5711
▁donnait	-11.5711
▁supporte	-11.5714
▁publi	-11.5714
▁Bible	-11.5715
taires	-11.5716
rence	-11.5716
▁Méd	-11.5717
▁Fond	-11.5718
▁fiscales	-11.5718
▁reconnus	-11.5719
▁Mardi	-11.572
▁récits	-11.5721
GO	-11.5721
attache	-11.5722
▁juges	-11.5725
▁tuto	-11.5727
▁fatigué	-11.5728
▁Exposition	-11.573
▁habitant	-11.5731
▁nuances	-11.5731
▁expose	-11.5732
dée	-11.5732
▁bah	-11.5736
▁Hors	-11.5737
▁kilos	-11.5739
▁bloquée	-11.5741
▁franchir	-11.5743
mber	-11.5744
▁brute	-11.5746
▁pos	-11.5747
▁Allemands	-11.5749
▁organisées	-11.5749
▁puni	-11.575
▁cousin	-11.5751
▁noble	-11.5752
▁péché	-11.5752
▁capteur	-11.5752
▁copain	-11.5753
play	-11.5754
▁facilite	-11.5763
▁restée	-11.5765
▁raté	-11.5766
dant	-11.5766
▁Gris	-11.5768
▁AM	-11.5769
▁robots	-11.5771
Jacques	-11.5771
Amour	-11.5772
▁amicales	-11.5773
▁géré	-11.5775
▁Kat	-11.5777
-14	-11.5778
▁Internationale	-11.5778
▁habitude	-11.578
▁créatures	-11.5782
firm	-11.5782
▁ménages	-11.5783
▁formats	-11.5787
▁imposer	-11.5787
▁Guadeloupe	-11.5788
▁impeccable	-11.5788
▁philosophique	-11.5788
▁renouveler	-11.5788
▁tolérance	-11.5788
▁yaourt	-11.5788
▁solitaire	-11.5788
▁appelés	-11.5788
▁suggère	-11.5788
▁traduire	-11.5789
▁Deuxième	-11.5789
▁dépression	-11.5789
▁créatrice	-11.5789
▁chéri	-11.579
▁Plat	-11.579
▁(20	-11.5791
▁dieux	-11.5791
▁Terrasse	-11.5792
lante	-11.5792
▁enlevé	-11.5792
▁soumission	-11.5793
▁aménagée	-11.5794
▁échec	-11.5796
lev	-11.5798
▁souhaitons	-11.5798
▁Jérôme	-11.5798
▁Siège	-11.5799
intégrité	-11.5799
▁maîtresse	-11.5799
▁survivre	-11.5801
niers	-11.5803
▁relief	-11.5805
▁marquant	-11.5806
▁conçus	-11.5808
eng	-11.5808
▁Sites	-11.5808
vonne	-11.5811
▁cordes	-11.5812
▁Arc	-11.5814
▁associées	-11.582
▁fouet	-11.5821
▁accent	-11.5824
▁affiché	-11.5825
▁enveloppe	-11.5827
TH	-11.583
▁pleurer	-11.5832
investir	-11.5833
▁cristal	-11.5833
igi	-11.5833
▁Client	-11.5835
core	-11.5836
exe	-11.5837
▁Vic	-11.5837
HO	-11.5839
▁individuelles	-11.5842
▁Fil	-11.5843
enseigne	-11.5843
▁latine	-11.5844
▁présidente	-11.5845
aw	-11.5847
ïd	-11.5849
▁natal	-11.5853
▁âmes	-11.5853
▁CI	-11.5853
▁merveilles	-11.5854
▁sépare	-11.5856
▁Reg	-11.586
lées	-11.5861
institution	-11.5862
test	-11.5864
▁Vit	-11.5865
▁AF	-11.5868
▁BE	-11.587
assainissement	-11.587
▁endommagé	-11.587
▁Quatre	-11.587
▁assurant	-11.587
▁montrant	-11.587
▁fédération	-11.587
▁PARIS	-11.5871
▁Définition	-11.5871
▁postale	-11.5872
asser	-11.5872
▁segment	-11.5872
▁Floch	-11.5872
▁réplique	-11.5872
▁350	-11.5873
▁personnaliser	-11.5874
▁orienté	-11.5875
▁ordinateurs	-11.5876
▁Atelier	-11.5876
▁gourmande	-11.5876
▁chapeau	-11.5877
TV	-11.5879
▁Midi	-11.5879
▁homo	-11.5884
méri	-11.5886
▁Fan	-11.5889
▁systématique	-11.5893
lent	-11.5893
UB	-11.5893
▁Energie	-11.5896
Char	-11.5897
▁laboratoires	-11.5897
osa	-11.5898
▁Amis	-11.5898
▁accueillant	-11.5898
▁Divers	-11.59
▁orale	-11.5903
chev	-11.5903
▁conc	-11.5904
Mer	-11.5904
▁janv	-11.5904
ower	-11.5906
▁emb	-11.5906
▁chantiers	-11.5907
AUX	-11.591
board	-11.5912
▁id	-11.5912
essaie	-11.5916
▁reproche	-11.5916
▁négociation	-11.5919
▁implication	-11.592
quel	-11.5921
actrice	-11.5922
▁barrière	-11.5922
dir	-11.5923
▁Bis	-11.5923
▁justifie	-11.5926
▁chargeur	-11.5928
▁ferai	-11.5929
▁distinguer	-11.5931
TR	-11.5931
▁victoires	-11.5932
▁chaises	-11.5934
▁designer	-11.5935
▁administration	-11.5936
ple	-11.5937
▁mignon	-11.5938
▁copier	-11.5939
internet	-11.5941
▁84	-11.5941
ope	-11.5943
▁enregistre	-11.5944
rière	-11.5947
▁retenu	-11.5949
▁Commande	-11.5951
afficher	-11.5953
▁Agricole	-11.5953
▁Mohamed	-11.5953
▁hospitalier	-11.5953
▁Moscou	-11.5953
▁voyons	-11.5953
▁Pensez	-11.5953
▁bouchon	-11.5953
▁déteste	-11.5954
▁reproduit	-11.5954
▁génère	-11.5955
émergence	-11.5955
▁recherchons	-11.5955
▁reviens	-11.5956
▁cherchant	-11.5956
▁jouant	-11.5956
▁pèse	-11.5956
▁rapporté	-11.5957
▁guise	-11.5957
▁Dix	-11.5959
▁Thé	-11.5959
tête	-11.596
▁exclu	-11.596
▁solides	-11.5962
▁Challenge	-11.5962
▁rachat	-11.5963
▁Id	-11.5964
▁rapproche	-11.5964
▁3000	-11.5965
▁imprimeur	-11.5966
▁Kar	-11.5966
▁institut	-11.5967
lain	-11.5972
▁messe	-11.5973
▁méta	-11.5974
▁nette	-11.5975
▁Sun	-11.5976
▁Blanche	-11.5976
▁ruines	-11.5979
▁antique	-11.598
▁extrêmes	-11.598
▁terminal	-11.598
▁fausses	-11.5984
▁charbon	-11.5985
▁énergétiques	-11.5986
eul	-11.5987
▁Jeanne	-11.5988
▁(12)	-11.5989
▁voisine	-11.5989
▁3°	-11.599
UMP	-11.5991
▁Appel	-11.5991
▁dominant	-11.5995
▁Partie	-11.5996
bul	-11.5997
2017	-11.5999
isez	-11.5999
▁exprime	-11.5999
nisme	-11.6
▁pari	-11.6
ieu	-11.6001
prise	-11.6002
ecto	-11.6002
▁débuts	-11.6004
▁»).	-11.6005
▁parvenu	-11.601
sac	-11.6011
institut	-11.6011
▁poussée	-11.6011
▁orientation	-11.6012
issez	-11.6012
▁têtes	-11.6012
Mars	-11.6013
▁climatiques	-11.6014
▁physiquement	-11.6016
pte	-11.6018
▁dresse	-11.6019
acquérir	-11.6021
▁exp	-11.6022
appellation	-11.6025
▁aménagé	-11.603
chose	-11.6031
suite	-11.6032
▁RP	-11.6033
▁formée	-11.6034
▁panoramique	-11.6036
▁prestigieux	-11.6036
▁productivité	-11.6036
▁quarantaine	-11.6036
▁téléviseur	-11.6036
▁utilitaire	-11.6036
▁volontiers	-11.6036
▁divx	-11.6036
▁vierge	-11.6037
▁Arnaud	-11.6037
▁casserole	-11.6037
avatar	-11.6038
▁Support	-11.6038
▁médiation	-11.6039
▁scrutin	-11.6039
▁Ajoutez	-11.6039
▁prisonniers	-11.6039
alloir	-11.6042
▁plantation	-11.6043
▁Vendée	-11.6047
Cette	-11.6047
▁diable	-11.6049
kan	-11.6049
▁signée	-11.6049
▁casting	-11.6049
issi	-11.605
▁déroulement	-11.6052
appeler	-11.6053
▁protégée	-11.6055
▁collier	-11.6055
othérapie	-11.6056
▁recueille	-11.6056
illes	-11.6056
ué	-11.6057
▁indices	-11.6057
▁plastiques	-11.6058
var	-11.6058
isent	-11.606
▁temp	-11.606
▁parfums	-11.6065
▁bro	-11.6068
00)	-11.6068
bill	-11.6069
▁existant	-11.6072
▁orientations	-11.6072
▁paye	-11.6074
expert	-11.6074
uma	-11.6075
▁AN	-11.6076
▁Cuba	-11.6076
gique	-11.6078
▁territoriale	-11.608
▁doutes	-11.6081
▁Zi	-11.6082
erne	-11.6084
omp	-11.6084
)...	-11.6086
▁97	-11.6089
▁costume	-11.6089
▁citations	-11.6089
apportent	-11.609
gl	-11.609
iya	-11.6094
▁JO	-11.6094
▁dragon	-11.6094
▁SP	-11.6096
orchestre	-11.6105
Angleterre	-11.6105
phon	-11.6105
▁québécois	-11.6106
ndre	-11.6107
▁Mondial	-11.6108
orge	-11.6109
▁reflète	-11.6111
type	-11.6112
échanges	-11.6112
▁Infos	-11.6113
▁démission	-11.6114
▁pratiqué	-11.6115
▁déroulera	-11.6117
▁pres	-11.6119
BO	-11.6119
▁magnétique	-11.612
▁entretenu	-11.612
▁Peinture	-11.612
▁Suivez	-11.612
▁soigneusement	-11.612
▁bienfaits	-11.6121
▁triangle	-11.6121
▁huitième	-11.6121
▁lingerie	-11.6122
▁lectures	-11.6122
▁diffuse	-11.6122
▁detail	-11.6124
▁routier	-11.6124
▁légèreté	-11.6124
▁Liban	-11.6124
▁passif	-11.6125
▁LI	-11.6125
▁considérés	-11.6125
▁(9)	-11.6127
▁valise	-11.6129
▁(10)	-11.613
huit	-11.613
▁roulette	-11.6133
light	-11.6134
▁Arch	-11.6137
▁more	-11.6138
yan	-11.6138
▁stratégiques	-11.614
▁Etre	-11.6141
▁pouss	-11.6143
▁poule	-11.6143
So	-11.6143
▁ju	-11.6144
▁divin	-11.6145
attendais	-11.6146
▁encourager	-11.6147
roll	-11.6148
▁obligatoirement	-11.6149
▁nommée	-11.6151
événements	-11.6151
▁versement	-11.6152
▁comte	-11.6154
▁Trier	-11.6156
▁emmène	-11.6158
▁camps	-11.6159
▁cessé	-11.6161
▁cachée	-11.6162
▁brin	-11.6165
▁1.4	-11.6166
▁modéré	-11.6168
▁bloqué	-11.6169
gni	-11.6173
▁leçons	-11.6174
▁collectivité	-11.6176
▁demandée	-11.6176
kk	-11.6177
rise	-11.6178
ride	-11.618
▁accompagnés	-11.6182
OIS	-11.6183
▁mienne	-11.6185
▁breton	-11.6188
▁régimes	-11.619
▁Marche	-11.619
entrepreneur	-11.6191
▁câbles	-11.6192
comp	-11.6192
écrivain	-11.6194
ussi	-11.6194
▁expo	-11.6196
▁Tél	-11.6196
▁indications	-11.6197
cons	-11.6199
aque	-11.6199
▁Ze	-11.62
▁(0)	-11.6201
tens	-11.6202
▁odeur	-11.6204
?)	-11.6204
▁Premium	-11.6205
▁ticket	-11.6205
▁Poids	-11.6205
▁Florence	-11.6205
▁tragique	-11.6205
▁productions	-11.6206
▁stationnement	-11.6206
▁cordon	-11.6207
▁Francisco	-11.6207
▁complot	-11.6208
▁organes	-11.6208
▁But	-11.6209
▁PIB	-11.6211
▁pratiquant	-11.6213
▁360	-11.6214
▁spécialités	-11.6214
▁convivial	-11.6217
phile	-11.6219
▁Matériel	-11.6221
lk	-11.6222
prime	-11.6224
▁sondages	-11.6225
▁Jules	-11.6226
▁immobiliers	-11.6228
▁dirigée	-11.6229
▁Access	-11.6229
▁sachez	-11.6229
▁drama	-11.6229
▁pénal	-11.623
▁tasse	-11.6232
ains	-11.6232
tori	-11.6233
▁jouet	-11.6234
DR	-11.6237
organ	-11.6239
▁rage	-11.6241
▁XIII	-11.6242
▁passager	-11.6242
▁observ	-11.6242
▁gains	-11.6242
▁réformes	-11.6243
approcha	-11.6244
▁relié	-11.6247
nation	-11.625
èse	-11.6251
▁Santa	-11.6253
▁symboles	-11.6253
▁Conseils	-11.6253
pac	-11.6255
▁sections	-11.6256
▁monument	-11.6257
▁confiant	-11.6259
NT	-11.626
▁Bet	-11.6261
▁cumul	-11.6262
att	-11.6262
▁stations	-11.6262
wing	-11.6264
▁contacté	-11.6264
▁prolonger	-11.6266
▁africain	-11.6266
red	-11.6266
▁colline	-11.6266
value	-11.6268
▁bail	-11.6268
ourd	-11.6268
30.	-11.627
▁xxx	-11.627
▁Ier	-11.6271
▁Contrats	-11.6272
▁dépense	-11.6273
▁Cab	-11.6274
intensité	-11.6278
▁Nouvel	-11.6282
▁séparée	-11.6282
RG	-11.6285
▁Heli	-11.6288
oth	-11.629
▁innocent	-11.6291
▁récompensé	-11.6291
▁silencieux	-11.6291
▁Jacob	-11.6291
▁aléatoire	-11.6291
▁interrogé	-11.6291
▁Polynésie	-11.6291
▁précoce	-11.6291
▁Vierge	-11.6291
▁générer	-11.6291
▁connaissais	-11.6291
oeuf	-11.6291
▁Double	-11.6291
▁vanille	-11.6291
▁champagne	-11.6292
▁bouteilles	-11.6292
▁développée	-11.6292
▁sixième	-11.6292
▁Chemin	-11.6292
▁Pla	-11.6292
héritier	-11.6292
▁reviennent	-11.6293
▁grammes	-11.6294
▁fédérale	-11.6294
▁subtil	-11.6295
chen	-11.6295
▁parution	-11.6295
▁permettait	-11.6297
ête	-11.6297
▁pharmaceutique	-11.6297
▁détecteur	-11.6298
▁sois	-11.6301
▁négocier	-11.6301
char	-11.6301
izz	-11.6303
▁recueillir	-11.6305
▁regrette	-11.6306
▁inform	-11.6306
▁ES	-11.6307
▁initialement	-11.6307
▁donnés	-11.6308
▁start	-11.6309
▁frappé	-11.631
▁Casa	-11.6314
▁valoriser	-11.6314
▁qq	-11.6316
▁grasse	-11.6317
▁adoptée	-11.6319
▁définies	-11.6319
▁figurent	-11.6324
▁délivré	-11.6325
▁Cloud	-11.6325
pier	-11.6327
▁bloque	-11.6327
▁raconté	-11.6328
▁canne	-11.6333
▁por	-11.6334
▁BL	-11.6335
▁passionnant	-11.6338
oni	-11.634
▁réussit	-11.6341
▁accorde	-11.6342
RIE	-11.6345
▁notoriété	-11.635
▁secs	-11.6351
▁roses	-11.6352
▁Membres	-11.6353
▁envisager	-11.6353
andre	-11.6354
▁libér	-11.6354
mettre	-11.6356
▁ranger	-11.6357
▁trip	-11.636
immense	-11.6364
abonnement	-11.6364
▁CHA	-11.6365
isolation	-11.6366
▁Rom	-11.6367
▁Ball	-11.6369
▁blocs	-11.6371
▁obligatoires	-11.6371
▁nomme	-11.6374
▁désignée	-11.6374
Agriculture	-11.6377
ingénierie	-11.6377
▁Clermont	-11.6377
▁Réponse	-11.6377
▁archéologique	-11.6377
▁couvercle	-11.6377
▁protecteur	-11.6377
▁rompre	-11.6377
▁silicone	-11.6377
▁Magazine	-11.6377
▁encadré	-11.6377
▁poubelle	-11.6377
▁repérer	-11.6377
▁république	-11.6377
▁Dakar	-11.6377
Bo	-11.6377
▁puits	-11.6378
▁transférer	-11.6379
▁avouer	-11.638
▁ruban	-11.638
▁préavis	-11.6381
▁coaching	-11.6381
▁relevant	-11.6382
vir	-11.6383
▁visés	-11.6383
▁VII	-11.6384
yne	-11.6384
▁suggestions	-11.6384
▁réputé	-11.6386
tous	-11.6387
▁recueillies	-11.639
("	-11.6391
▁indienne	-11.6391
uter	-11.6392
▁dépôts	-11.6393
▁Ecole	-11.6395
▁ordonné	-11.6395
▁Petites	-11.6399
▁réglé	-11.6407
▁porteurs	-11.6407
▁Massa	-11.6407
▁Dom	-11.641
▁enregistrées	-11.641
gna	-11.6412
▁grandement	-11.6413
▁batt	-11.6413
▁serré	-11.6413
▁Media	-11.6414
▁battant	-11.6417
▁Sho	-11.6418
▁revues	-11.6418
alo	-11.642
▁regret	-11.6422
▁XX	-11.6423
rose	-11.6425
▁Berger	-11.6425
▁Auvergne	-11.6426
▁RÉ	-11.6429
▁épargne	-11.643
▁Perso	-11.643
▁autorisée	-11.6431
▁lentilles	-11.6433
▁soldes	-11.6438
▁textile	-11.6438
▁are	-11.644
▁inventaire	-11.6443
▁municipale	-11.6444
▁nuages	-11.6444
▁Alt	-11.6444
gis	-11.6445
▁caractérise	-11.6446
dj	-11.645
▁pla	-11.645
inquiète	-11.6451
orn	-11.6451
évènement	-11.6451
▁adressée	-11.6452
Allah	-11.6452
animaux	-11.6452
présent	-11.6455
▁pros	-11.6455
▁Avallon	-11.6456
érable	-11.6457
▁intégral	-11.6457
▁open	-11.6457
▁Steve	-11.646
▁Edition	-11.646
œuf	-11.6461
▁Août	-11.6463
illard	-11.6463
▁Propriété	-11.6464
▁coopérative	-11.6464
inspection	-11.6464
▁MGK	-11.6464
▁littéralement	-11.6464
▁çà	-11.6464
▁probleme	-11.6464
▁prescrit	-11.6464
▁tunnel	-11.6464
▁gastronomie	-11.6464
▁Renaissance	-11.6464
▁Division	-11.6464
▁BMW	-11.6464
▁Près	-11.6466
▁Décoration	-11.6466
▁Martinique	-11.6467
▁Jamais	-11.6467
▁concessionnaire	-11.6467
▁canaux	-11.6468
▁smartphones	-11.6468
▁paroisse	-11.6469
awa	-11.6469
▁portraits	-11.6469
▁repartir	-11.6471
▁hybride	-11.6476
gli	-11.6477
▁serons	-11.6478
▁promesses	-11.6478
▁composent	-11.6481
▁71	-11.6484
▁dépenser	-11.6485
▁wh	-11.6486
rug	-11.6488
accroche	-11.6489
▁marbre	-11.6489
▁quotidiennement	-11.6489
▁vieilles	-11.6491
▁juridiction	-11.6496
▁guerres	-11.6496
▁adéquat	-11.6496
IK	-11.6497
bonne	-11.6498
▁proprement	-11.6498
gno	-11.6499
IDE	-11.6499
hôte	-11.65
rieur	-11.6504
▁DC	-11.6505
▁190	-11.6506
▁offici	-11.6509
▁réf	-11.6511
▁axes	-11.6511
▁côtes	-11.6512
puis	-11.6514
▁(12	-11.6514
▁bloquer	-11.6514
OUR	-11.6517
▁entretenir	-11.6517
▁bibliothèques	-11.6517
instrument	-11.6518
▁Ap	-11.6518
▁républicain	-11.6519
▁calculer	-11.652
▁chante	-11.6522
▁cinquante	-11.6523
pect	-11.6523
▁démarre	-11.6524
▁résistant	-11.6524
quant	-11.6525
archi	-11.6526
ajout	-11.6527
▁respecté	-11.6528
▁mythe	-11.6528
▁soldat	-11.6528
▁titulaires	-11.6532
▁Joe	-11.6534
▁ombre	-11.6535
▁pince	-11.6537
▁fermés	-11.6538
adhésion	-11.654
▁pleins	-11.6541
▁Rio	-11.6542
▁éliminer	-11.6543
▁effective	-11.6543
iger	-11.6544
▁manager	-11.6544
tiers	-11.6547
▁vitamines	-11.6547
▁corde	-11.6548
▁Nathalie	-11.6551
▁Perpignan	-11.6551
▁splendide	-11.6551
▁suprême	-11.6551
▁systémique	-11.6551
▁vocabulaire	-11.6551
Éducation	-11.6551
▁validité	-11.6551
▁retrace	-11.6552
▁flèche	-11.6552
▁Portail	-11.6552
asseoir	-11.6552
▁sauter	-11.6553
▁fierté	-11.6554
▁blague	-11.6555
▁UV	-11.6555
▁créatifs	-11.6556
în	-11.6556
internaute	-11.6557
▁nucléaires	-11.6557
▁exemplaire	-11.6558
▁Question	-11.6559
▁clichés	-11.6559
▁collectées	-11.656
▁Ec	-11.656
▁ajoutant	-11.656
▁obscur	-11.6561
▁Immobilier	-11.6562
▁poèmes	-11.6563
▁Indi	-11.6565
▁débuter	-11.6566
▁Micro	-11.6566
liste	-11.6567
▁dispute	-11.6567
▁administratifs	-11.6567
▁menacé	-11.657
▁mécaniques	-11.6571
rich	-11.6571
▁résidences	-11.6571
▁soif	-11.6572
▁bla	-11.6572
▁ajoutez	-11.6572
▁Arthur	-11.6572
nge	-11.6574
URL	-11.6575
▁fondateurs	-11.6575
gée	-11.6578
▁CDI	-11.6581
riel	-11.6581
▁approches	-11.6582
▁contraint	-11.6584
▁autorisés	-11.6584
▁soie	-11.6584
iro	-11.6585
▁2011.	-11.6586
appréciation	-11.6586
▁affichée	-11.6587
guer	-11.6587
▁romain	-11.6588
▁catholiques	-11.6591
▁transmet	-11.6591
▁Hauteur	-11.6594
▁XVIIe	-11.6595
▁concernée	-11.6597
▁Fils	-11.6599
duire	-11.6601
▁ref	-11.6606
attaquer	-11.6609
IGN	-11.6611
▁lourds	-11.6611
late	-11.6614
Mai	-11.6615
▁habituelle	-11.6615
jon	-11.6617
▁your	-11.6618
▁codec	-11.6618
pus	-11.6618
FS	-11.6619
▁monstre	-11.6619
▁OU	-11.6619
▁Ang	-11.6622
▁confortables	-11.6627
▁caisses	-11.6628
-11	-11.6628
▁alerte	-11.6631
▁oublie	-11.6633
artisanat	-11.6635
Iran	-11.6635
▁compliquée	-11.6636
éthique	-11.6636
▁qualifiée	-11.6637
uis	-11.6638
gro	-11.6638
▁violet	-11.6639
▁Effectivement	-11.664
▁School	-11.664
▁terroir	-11.664
▁Secret	-11.664
▁remorque	-11.664
▁RDV	-11.664
▁bénéfique	-11.664
▁timide	-11.664
▁quarante	-11.664
▁Concert	-11.664
▁Logement	-11.6641
▁facade	-11.6643
▁bijou	-11.6644
▁aident	-11.6645
▁unis	-11.6645
2018	-11.665
▁Sub	-11.665
▁Mieux	-11.6652
▁volontairement	-11.6652
▁inspirée	-11.6652
▁prouve	-11.6652
▁2001,	-11.6653
tari	-11.6655
▁Acheter	-11.6656
Sur	-11.6656
▁stands	-11.6657
▁Référence	-11.6657
▁attire	-11.6658
▁Cass	-11.6658
▁éphémère	-11.6658
▁Iran	-11.6659
▁carrément	-11.6659
TES	-11.666
▁uniforme	-11.6661
posé	-11.6662
▁gal	-11.6667
▁Seconde	-11.6667
▁Social	-11.6667
▁fondamental	-11.6668
▁apprécie	-11.6669
▁évit	-11.6674
▁adolescent	-11.6677
▁SD	-11.6678
vois	-11.668
▁résidentiel	-11.6686
▁occupée	-11.6687
lio	-11.6691
▁brisé	-11.6691
▁devoirs	-11.6695
▁incendie	-11.6703
▁École	-11.6704
▁report	-11.6706
PM	-11.6707
▁senior	-11.6709
▁fourniture	-11.6711
▁cage	-11.6711
▁reçues	-11.6711
▁balles	-11.6712
▁filiales	-11.6716
str	-11.6717
▁sollicité	-11.6717
ingénieur	-11.6719
▁Unité	-11.6719
^^	-11.6719
▁tenus	-11.672
work	-11.672
ampleur	-11.6721
▁généreuse	-11.6721
▁amies	-11.6723
▁réparations	-11.6724
▁Tan	-11.6724
▁Maine	-11.6725
▁ouvriers	-11.6728
▁engager	-11.6728
▁rénové	-11.6728
▁prenne	-11.6729
▁détection	-11.6729
▁joyeux	-11.6729
▁barbecue	-11.6729
▁restreint	-11.6729
▁Smith	-11.6729
▁divertissement	-11.6729
▁déclinaison	-11.6729
▁rigide	-11.6729
▁devriez	-11.6729
▁numero	-11.6729
▁inventé	-11.6729
▁pivot	-11.6729
▁diamant	-11.6729
▁travaillons	-11.6729
▁écouté	-11.6729
▁Souvent	-11.673
▁constructeurs	-11.6732
ére	-11.6732
▁1971	-11.6733
▁porn	-11.6734
▁Wikipédia	-11.6735
▁caresse	-11.6735
▁publiées	-11.6737
▁LO	-11.6739
▁Durée	-11.674
▁PE	-11.6741
▁Nuit	-11.6742
▁AD	-11.6743
rim	-11.6747
▁Autrement	-11.6747
Na	-11.6749
▁Remarque	-11.6749
▁Angel	-11.6751
vic	-11.6752
▁remarques	-11.6753
▁Guinée	-11.6753
▁accessoire	-11.6754
▁HP	-11.6755
▁Envie	-11.6758
▁trains	-11.676
ping	-11.6761
▁cré	-11.6761
▁redonner	-11.6762
▁HA	-11.6763
▁hydro	-11.6763
▁Pu	-11.6764
hir	-11.6765
plex	-11.6765
▁aveugle	-11.6768
▁créent	-11.6768
▁statuts	-11.6768
▁peaux	-11.6768
git	-11.6769
▁régal	-11.6769
▁institutionnel	-11.6769
éo	-11.677
▁stocker	-11.6771
aube	-11.6772
▁aigu	-11.6772
▁Accessoires	-11.6775
OUT	-11.6775
▁réelles	-11.6776
vy	-11.678
urier	-11.6783
intéresser	-11.6785
▁interprète	-11.6786
illet	-11.6786
▁Day	-11.6788
UI	-11.6793
▁Land	-11.6794
DD	-11.6794
2013	-11.6795
▁Sont	-11.6797
▁longuement	-11.6799
trouvant	-11.68
▁wi	-11.68
▁exact	-11.68
▁collègue	-11.6801
got	-11.6802
uy	-11.6802
▁explication	-11.6803
Elle	-11.6804
▁arrêtés	-11.6804
▁roule	-11.6805
▁comptent	-11.6805
▁conviviale	-11.6806
▁aîné	-11.6809
▁Grim	-11.681
CD	-11.6811
▁domin	-11.6813
indice	-11.6814
▁sienne	-11.6814
Do	-11.6815
cht	-11.6815
▁portion	-11.6816
▁croise	-11.6817
▁OS	-11.6819
▁douloureuse	-11.6819
▁dédicace	-11.6819
▁modération	-11.6819
▁psychique	-11.6819
▁renovation	-11.6819
▁Licence	-11.6819
▁croyez	-11.6819
▁installateur	-11.6819
▁soulève	-11.6819
▁Caroline	-11.682
▁Nancy	-11.682
▁routine	-11.682
▁Linux	-11.682
▁décalé	-11.682
▁concentre	-11.6821
▁sentier	-11.6821
▁déception	-11.6822
SER	-11.6823
▁prenait	-11.6823
▁1987	-11.6824
▁AG	-11.6825
udo	-11.6825
▁Vent	-11.6828
▁Sky	-11.6829
usure	-11.6829
▁1950	-11.6832
nçon	-11.6832
▁Marco	-11.6833
list	-11.6834
IEN	-11.6834
▁Lab	-11.6836
▁atouts	-11.6836
▁reporter	-11.6837
▁Direct	-11.6838
▁transporter	-11.6839
▁coupure	-11.684
▁boîtes	-11.6841
▁bob	-11.6846
itch	-11.6846
▁tro	-11.6846
▁barbe	-11.6847
▁alcool	-11.6848
verbal	-11.6849
▁abonnés	-11.6851
▁inédite	-11.6852
▁sessions	-11.6852
échanger	-11.6855
glo	-11.6858
▁Cinq	-11.6859
oirs	-11.6861
▁courtier	-11.6862
▁territoriales	-11.6865
▁dynamiques	-11.6866
▁Dés	-11.6868
habitants	-11.6868
▁amener	-11.6872
▁robes	-11.6874
▁lampes	-11.6876
allume	-11.6877
▁assistant	-11.6877
▁désigner	-11.6878
nard	-11.6878
▁éditeur	-11.6879
▁pompes	-11.6881
▁solaires	-11.6881
▁déterminée	-11.6882
▁ferais	-11.6884
▁animée	-11.6886
▁industrielles	-11.6887
▁aéroport	-11.6888
▁Fred	-11.689
▁Conf	-11.689
▁occuper	-11.6892
▁constructions	-11.6893
▁Technique	-11.6893
ava	-11.6895
fl	-11.6896
émie	-11.6897
Pré	-11.6897
▁Marne	-11.69
Im	-11.6901
hygiène	-11.6901
exigence	-11.6902
apparence	-11.6902
Alsace	-11.6902
Avril	-11.6902
accueillir	-11.6902
▁DH	-11.6904
▁matelas	-11.6906
admission	-11.6908
alerte	-11.6909
▁Burkina	-11.691
▁alternatif	-11.691
▁chêne	-11.691
▁contradiction	-11.691
▁ferroviaire	-11.691
▁vedette	-11.691
▁dénommé	-11.691
yahoo	-11.691
▁entraîné	-11.691
▁Désolé	-11.691
▁Reims	-11.691
▁hélas	-11.6911
▁bouquet	-11.6911
▁interactive	-11.6911
▁tristesse	-11.6912
immo	-11.6912
▁mondialisation	-11.6914
▁prétendre	-11.6914
arg	-11.6915
▁forcé	-11.6917
▁organisés	-11.6917
▁échapper	-11.6917
▁tou	-11.6918
▁grecque	-11.6919
▁Costa	-11.6919
euro	-11.6921
▁Raphaël	-11.6922
▁Piscine	-11.6922
▁semblerait	-11.6923
▁diminue	-11.6923
▁Benoît	-11.6924
▁Allah	-11.6924
▁partiellement	-11.6926
indre	-11.6927
▁tomates	-11.6928
▁hebdomadaire	-11.693
▁Aménagement	-11.693
▁back	-11.693
":	-11.6932
▁armé	-11.6932
▁béni	-11.6935
▁éventuels	-11.6935
▁conservé	-11.6935
poli	-11.6935
▁demandeurs	-11.6936
▁réussie	-11.6937
mark	-11.6941
réf	-11.6946
▁confier	-11.6951
▁Vend	-11.6952
▁Sacs	-11.6953
▁administrations	-11.6957
▁éliminé	-11.6958
▁déployé	-11.6961
grave	-11.6962
AIS	-11.6962
▁sache	-11.6962
▁Lamy	-11.6964
▁rencontrés	-11.6964
▁comm	-11.6965
▁minimale	-11.6966
▁illimité	-11.6968
▁transparente	-11.6968
▁2,5	-11.6969
▁Mère	-11.6969
éva	-11.697
aro	-11.697
appuya	-11.6976
▁Presse	-11.6979
▁vole	-11.6981
▁maxi	-11.6982
▁déclin	-11.6982
▁cochon	-11.6984
élément	-11.6986
▁promesse	-11.6987
▁méchant	-11.6987
▁rassure	-11.6988
▁indiquée	-11.6989
▁dangereuse	-11.6989
inf	-11.6993
habitat	-11.6994
▁formateur	-11.6994
Di	-11.6995
évaluer	-11.6995
OO	-11.6995
▁failli	-11.6996
▁socialiste	-11.6996
▁délit	-11.6996
nçant	-11.6997
▁planté	-11.6998
▁Objectif	-11.7
omo	-11.7
adolescence	-11.7002
▁Secrétaire	-11.7002
▁châssis	-11.7002
▁portugais	-11.7002
▁toulouse	-11.7002
▁Valérie	-11.7002
▁mélodie	-11.7002
▁curieuse	-11.7002
▁interieur	-11.7002
▁remède	-11.7002
▁Smart	-11.7002
▁vecteur	-11.7002
AH	-11.7002
▁atteints	-11.7003
▁sanguin	-11.7003
▁bars	-11.7003
▁???	-11.7004
▁étroit	-11.7005
▁maroc	-11.7005
aviation	-11.7006
▁NE	-11.7006
▁Droits	-11.7007
▁gouverneur	-11.7008
▁richesses	-11.7009
ysfonctionnement	-11.7013
20)	-11.7013
mba	-11.7013
ink	-11.7014
▁annoncée	-11.7014
importation	-11.7015
▁atout	-11.7016
▁gang	-11.7017
chemin	-11.7019
▁empreinte	-11.7019
lière	-11.702
▁nouveauté	-11.7024
ingue	-11.7027
▁fournie	-11.7028
▁randonnées	-11.703
▁Us	-11.7031
▁Beaux	-11.7031
Ab	-11.7032
▁écart	-11.7032
▁hypothèses	-11.7033
▁débiteur	-11.7035
▁Local	-11.7035
arrache	-11.7036
▁applique	-11.7036
▁prêtres	-11.7036
");	-11.7036
▁remporter	-11.7037
▁Porno	-11.7038
▁Ressources	-11.7041
CG	-11.7043
▁finalité	-11.7044
maire	-11.7046
▁rédiger	-11.7048
▁vends	-11.7048
▁Résultats	-11.7049
▁assiste	-11.7053
▁larges	-11.7053
▁jolis	-11.7053
had	-11.7054
ICE	-11.7055
etc	-11.7055
égo	-11.7056
▁vivants	-11.7058
▁Psych	-11.706
▁spot	-11.7061
▁sinistre	-11.7062
▁visuels	-11.7063
▁allés	-11.7064
▁déni	-11.7068
▁Dam	-11.707
▁charger	-11.707
▁Audi	-11.7072
Ag	-11.7073
▁1920	-11.7074
▁fréquenté	-11.7075
FT	-11.7076
etre	-11.7076
▁combine	-11.7077
asso	-11.7077
Lo	-11.7081
▁blessure	-11.7081
▁policier	-11.7081
▁juif	-11.7081
normal	-11.7085
▁gouvern	-11.7086
▁5000	-11.7087
▁épaisse	-11.7087
inventaire	-11.7088
HB	-11.7088
▁jette	-11.709
surtout	-11.709
▁déroulé	-11.7091
▁out	-11.7092
occurrence	-11.7095
▁harcèlement	-11.7095
▁musculation	-11.7095
▁psychiatrique	-11.7095
▁windows	-11.7095
▁humanitaire	-11.7095
▁bronze	-11.7095
▁diesel	-11.7095
inématographique	-11.7095
▁dynamisme	-11.7095
▁macro	-11.7095
▁truite	-11.7096
▁juil	-11.7096
▁souffrir	-11.7096
▁recueilli	-11.7096
rousse	-11.7097
dar	-11.7098
▁espagnole	-11.7101
lm	-11.7102
▁Hor	-11.7103
▁péril	-11.7105
▁poils	-11.7105
▁caméras	-11.7105
oin	-11.7106
▁téléphones	-11.7108
▁poire	-11.7112
▁expérimenté	-11.7112
▁budgets	-11.7113
rod	-11.7114
▁men	-11.7115
▁relie	-11.7117
▁appliquée	-11.7117
▁censé	-11.7119
▁soigné	-11.712
lix	-11.7122
▁localité	-11.7122
▁déclarer	-11.7123
▁rumeurs	-11.7124
▁globalement	-11.7125
thèque	-11.7125
▁démontré	-11.7125
hel	-11.7126
▁visualiser	-11.7127
.9	-11.713
cit	-11.7131
▁bagages	-11.7133
▁express	-11.7134
▁vienne	-11.7135
▁Bord	-11.7136
▁palme	-11.7139
▁VIII	-11.7141
book	-11.7146
leurs	-11.7149
▁galeries	-11.7156
▁neufs	-11.7156
▁urgent	-11.7157
product	-11.7159
gor	-11.716
▁(13	-11.7162
BER	-11.7163
▁factures	-11.7164
▁vraies	-11.7165
▁croissante	-11.7166
▁amant	-11.7167
▁form	-11.7167
▁chirurgie	-11.7168
▁2004,	-11.7169
▁Arm	-11.7173
ANA	-11.7174
▁Bor	-11.7174
▁(9	-11.7174
▁exacte	-11.7176
▁Para	-11.718
▁vertus	-11.7181
class	-11.7182
▁Régional	-11.7182
▁dense	-11.7182
App	-11.7183
pho	-11.7183
▁annulation	-11.7183
▁créés	-11.7184
▁pervers	-11.7184
▁It	-11.7184
▁Connect	-11.7186
▁poème	-11.7186
▁habitation	-11.7186
▁Dictionnaire	-11.7188
▁Galaxy	-11.7188
▁Historique	-11.7188
▁Rejoignez	-11.7188
▁stupide	-11.7188
▁mondiaux	-11.7188
▁homosexuel	-11.7188
▁Véritable	-11.7188
▁banquier	-11.7188
▁peindre	-11.7188
▁doublé	-11.7188
▁estivale	-11.7188
▁Fri	-11.7189
▁FRANCE	-11.7189
Arabie	-11.7189
▁éducatif	-11.7189
▁boisson	-11.7189
▁doué	-11.719
embauche	-11.719
▁décharge	-11.719
interaction	-11.719
▁vain	-11.719
star	-11.7191
▁appréciée	-11.7191
▁réchauffement	-11.7191
▁mobilisé	-11.7192
▁1968	-11.7192
▁raisonnement	-11.7193
eut	-11.7193
▁campus	-11.7193
▁lointain	-11.7194
▁that	-11.7194
▁XVIe	-11.7195
éclair	-11.7195
▁passeport	-11.7195
▁févr	-11.7195
épa	-11.7196
▁Bur	-11.7199
attentat	-11.7199
▁Télécharger	-11.7199
▁FA	-11.72
▁évoqu	-11.7203
mac	-11.7204
▁5%	-11.7204
▁revers	-11.7204
NC	-11.7204
▁pourrons	-11.7206
▁Act	-11.7212
▁basses	-11.7214
▁britanniques	-11.7218
ego	-11.722
▁gouvernementale	-11.7221
▁Coll	-11.7222
▁lente	-11.7224
▁fière	-11.7224
contact	-11.7225
primé	-11.7225
▁XVIIIe	-11.7226
éveil	-11.7226
étang	-11.723
▁2010.	-11.7231
▁mères	-11.7236
▁twitter	-11.7236
▁Ev	-11.7236
▁craquer	-11.7237
▁BA	-11.7239
▁Bru	-11.724
▁bords	-11.7243
shi	-11.7243
▁Met	-11.7244
▁représenté	-11.7244
▁Ol	-11.7249
▁liquides	-11.725
▁Mol	-11.7251
▁clin	-11.7251
▁composer	-11.7252
▁jaunes	-11.7253
▁fondamentale	-11.7255
titude	-11.7256
▁débutants	-11.726
▁Amy	-11.7262
ando	-11.7263
gène	-11.7265
▁tag	-11.7265
▁William	-11.7266
▁Consult	-11.727
▁mâle	-11.7272
▁saveur	-11.7272
▁séparé	-11.7273
▁sus	-11.7276
▁fig	-11.7276
sport	-11.7276
ires	-11.7276
explication	-11.7277
▁songe	-11.728
implantation	-11.728
▁Municipal	-11.7281
▁SharePoint	-11.7282
▁baignade	-11.7282
▁mystérieux	-11.7282
▁Henry	-11.7282
▁affilié	-11.7282
▁Dossier	-11.7282
▁Charente	-11.7283
▁Cadre	-11.7283
▁Laurence	-11.7283
▁détermine	-11.7284
▁résine	-11.7284
▁exprimé	-11.7284
▁couteau	-11.7286
▁incontournables	-11.7287
▁VFS	-11.7288
encore	-11.7291
▁distribué	-11.7291
▁Levi	-11.7291
▁pouce	-11.7291
▁rencontrez	-11.7292
||--	-11.7293
▁mensuelle	-11.7293
▁détachées	-11.7293
▁tete	-11.7295
gnac	-11.7295
▁Montre	-11.7295
Jo	-11.7296
▁Moteur	-11.7296
▁Pôle	-11.7297
▁conclut	-11.7299
▁Chant	-11.73
▁pétition	-11.7301
▁pipe	-11.7303
▁Discussion	-11.7303
▁intégration	-11.7304
▁contes	-11.7304
▁radical	-11.7305
▁BB	-11.7306
▁rendus	-11.7308
vez	-11.7309
lop	-11.7309
▁représentée	-11.7309
▁Amour	-11.7311
▁studios	-11.7312
orient	-11.7313
▁30%	-11.7313
hl	-11.7315
▁composant	-11.7315
▁Étienne	-11.7317
ship	-11.732
▁Garantie	-11.732
▁minière	-11.732
key	-11.7321
▁fondre	-11.7323
ova	-11.7323
▁rassemblé	-11.7324
▁optimal	-11.7324
▁opinions	-11.7325
▁géo	-11.7325
▁persuadé	-11.733
▁Savoie	-11.7331
▁boss	-11.7332
eva	-11.7336
Du	-11.7337
color	-11.7339
ligne	-11.734
▁directives	-11.7342
▁raccord	-11.7345
▁Jar	-11.7353
▁achète	-11.7353
▁Joy	-11.7357
▁angles	-11.736
▁Maur	-11.7361
▁transporteur	-11.7364
▁lourdes	-11.7365
▁Kid	-11.7365
▁particularité	-11.7369
vu	-11.7369
llo	-11.737
▁rêvé	-11.7373
pass	-11.7374
Service	-11.7374
FC	-11.7374
▁développeurs	-11.7376
enregistrer	-11.7377
▁Gratuite	-11.7377
▁Benjamin	-11.7378
▁Napoléon	-11.7378
▁Résumé	-11.7378
▁millénaire	-11.7378
▁panorama	-11.7378
▁cyber	-11.7378
▁Populaire	-11.7378
▁fantaisie	-11.7378
▁Malaisie	-11.7378
▁Sylvain	-11.7378
▁paraissent	-11.7378
Marc	-11.7378
▁gentillesse	-11.7378
▁repéré	-11.7378
Rencontre	-11.7379
▁déroulée	-11.7381
▁planning	-11.7381
▁allaient	-11.7381
amande	-11.7383
enligne	-11.7383
▁Stade	-11.7385
▁Afficher	-11.7385
▁fé	-11.7386
▁pavé	-11.7387
▁impératif	-11.7388
▁caisson	-11.7388
▁décoré	-11.7388
▁Nick	-11.7391
▁gage	-11.7391
▁maintenu	-11.7392
▁Belge	-11.7392
▁80%	-11.7392
exprime	-11.7392
▁Eau	-11.7393
▁intervenant	-11.7395
▁Langue	-11.7398
imposent	-11.74
ISE	-11.7401
▁Réf	-11.7402
▁Gel	-11.7402
lès	-11.7403
▁Duc	-11.7405
▁ascenseur	-11.7406
▁speed	-11.7406
▁Quelque	-11.7407
▁volontaires	-11.7407
▁Valentin	-11.741
▁syn	-11.7411
▁variations	-11.7412
▁nantes	-11.7412
▁existants	-11.7414
▁vache	-11.7415
▁portait	-11.7416
▁youtube	-11.7418
▁profondes	-11.7418
▁tombent	-11.742
▁nues	-11.7422
▁compatibles	-11.7425
▁:-)	-11.7427
kou	-11.7428
OD	-11.743
SG	-11.7431
▁gen	-11.7434
NET	-11.7435
oïde	-11.7436
▁sms	-11.7436
▁employ	-11.7438
▁aiguilles	-11.7441
▁réveille	-11.7441
▁Nat	-11.7441
pop	-11.7442
far	-11.7444
▁intentions	-11.7446
▁manuelle	-11.7446
▁enquêtes	-11.7448
▁Boy	-11.7449
▁interprété	-11.745
▁découvrirez	-11.745
▁brise	-11.7453
ciel	-11.7454
▁financé	-11.7454
▁consultations	-11.7457
▁enregistrée	-11.7458
IO	-11.7458
"...	-11.7459
▁ressortir	-11.7461
▁explosion	-11.7464
▁misère	-11.7464
▁pareille	-11.7465
▁précieuse	-11.7467
▁luttes	-11.7468
▁ingénieurs	-11.7468
Organisation	-11.7471
accessoires	-11.7471
247	-11.7473
▁compl	-11.7473
▁repart	-11.7473
▁Possibilité	-11.7474
▁Tokyo	-11.7474
▁gigantesque	-11.7474
▁éventail	-11.7474
▁bricolage	-11.7474
▁optimisé	-11.7474
▁croyant	-11.7474
▁formulé	-11.7474
▁Semaine	-11.7474
▁Décret	-11.7474
▁étonné	-11.7474
▁modernité	-11.7474
urbanisme	-11.7474
▁maitrise	-11.7475
▁housse	-11.7475
▁insectes	-11.7475
entends	-11.7476
▁Mod	-11.7476
▁induit	-11.7477
▁comptait	-11.7477
belle	-11.7477
watch	-11.7478
▁1983	-11.7478
Hu	-11.7478
▁syndicat	-11.7478
▁intégrale	-11.7479
▁maquette	-11.7482
▁Départ	-11.7483
▁QU	-11.7484
▁Classement	-11.7484
▁Magnifique	-11.7484
▁facettes	-11.7484
▁vendeurs	-11.7484
▁reparti	-11.7485
éteint	-11.7486
▁handicapées	-11.7486
▁concertation	-11.7487
▁Manu	-11.7488
▁IT	-11.7489
Ho	-11.749
▁Imp	-11.749
▁adeptes	-11.749
▁positifs	-11.7492
▁bêtes	-11.7492
▁verticale	-11.7493
▁certifié	-11.7493
▁décline	-11.7494
▁paysans	-11.7494
orage	-11.7496
bord	-11.7497
▁officiels	-11.7498
▁libertines	-11.7498
grace	-11.7499
▁supérieurs	-11.7502
ND	-11.7502
▁odeurs	-11.751
live	-11.7511
▁spécialisées	-11.7513
rendu	-11.7513
▁cerise	-11.7515
▁ter	-11.7516
▁croyances	-11.7516
▁tendu	-11.7516
▁Hou	-11.7518
▁capteurs	-11.7518
▁syndic	-11.7522
▁brique	-11.7523
▁chargement	-11.7524
▁précautions	-11.7524
▁règlements	-11.7525
▁bleus	-11.7526
▁rencontrent	-11.7528
▁Mani	-11.7531
▁attaqué	-11.7532
▁scan	-11.7536
▁chroniques	-11.7537
▁vs	-11.7541
thique	-11.7541
▁décors	-11.7542
▁entités	-11.7544
▁planètes	-11.7545
▁calculs	-11.7548
▁définie	-11.7548
AV	-11.755
lv	-11.7553
▁attaché	-11.7555
▁Final	-11.7559
▁cout	-11.7559
media	-11.756
▁édifice	-11.7563
▁pressé	-11.7563
▁abandonner	-11.7564
friend	-11.7565
▁Alep	-11.7565
▁créatif	-11.7567
▁comble	-11.7567
▁RA	-11.7569
▁supérieures	-11.7569
employeur	-11.7569
lut	-11.7569
Denis	-11.757
▁Caractère	-11.7571
▁Désormais	-11.7571
▁Poitiers	-11.7571
▁Rwanda	-11.7571
▁Voiture	-11.7571
▁associatif	-11.7571
▁comptabilité	-11.7571
▁littoral	-11.7571
▁réconfort	-11.7571
▁vôtre	-11.7571
▁serpent	-11.7571
▁discuté	-11.7571
▁révolte	-11.7571
▁Bonsoir	-11.7571
▁polyester	-11.7571
▁stylo	-11.7571
▁Déclaration	-11.7571
▁fesses	-11.7571
▁7,95	-11.7571
▁opéré	-11.7572
▁Municipalité	-11.7572
▁ira	-11.7572
club	-11.7572
▁Beach	-11.7572
▁gravure	-11.7574
▁1981	-11.7574
cell	-11.7575
▁thérapeutique	-11.7575
▁tomba	-11.7577
▁Superbe	-11.7577
▁fraction	-11.7577
▁Abd	-11.7577
▁baptisé	-11.7578
▁cit	-11.758
▁Classe	-11.758
▁amont	-11.7582
TTE	-11.7586
▁tabou	-11.7586
▁cités	-11.7586
▁Longue	-11.7586
▁Sand	-11.7587
▁clics	-11.7592
EI	-11.7592
▁Devant	-11.7594
▁Essai	-11.7596
▁zo	-11.7597
▁intitulée	-11.7598
▁ciné	-11.7598
arret	-11.7599
▁aliment	-11.7599
▁gl	-11.76
Garonne	-11.76
▁Bloc	-11.76
▁rocher	-11.76
▁iPad	-11.7601
gence	-11.7603
▁indicateurs	-11.7603
acteurs	-11.7604
▁vinyle	-11.7605
VA	-11.7606
...”	-11.7607
▁idéalement	-11.7609
dale	-11.7609
▁1,2	-11.761
▁cesser	-11.7611
quent	-11.7611
ague	-11.7611
▁autrefois	-11.7612
▁désespéré	-11.7614
fix	-11.7615
▁excès	-11.7617
tivité	-11.7618
▁paille	-11.762
▁Située	-11.7623
▁sup	-11.7625
▁champignons	-11.7626
▁rejeté	-11.7629
▁généraliste	-11.763
tite	-11.763
▁Fat	-11.763
ADN	-11.7632
▁Cook	-11.7632
▁changent	-11.7632
AUD	-11.7632
▁contrôlé	-11.7633
▁admir	-11.7634
▁formés	-11.7636
▁exposés	-11.7636
lux	-11.7637
▁disons	-11.7639
▁planches	-11.7639
▁prononcer	-11.7641
▁douces	-11.7644
clair	-11.7644
MD	-11.7646
▁montants	-11.7648
▁conformes	-11.7648
2016	-11.7656
▁supprimés	-11.7656
[...]
